/**
  ******************************************************************************
  * @file    network_data_params.c
  * @author  AST Embedded Analytics Research Platform
  * @date    2024-11-08T16:26:51+0800
  * @brief   AI Tool Automatic Code Generator for Embedded NN computing
  ******************************************************************************
  * Copyright (c) 2024 STMicroelectronics.
  * All rights reserved.
  *
  * This software is licensed under terms that can be found in the LICENSE file
  * in the root directory of this software component.
  * If no LICENSE file comes with this software, it is provided AS-IS.
  ******************************************************************************
  */

#include "network_data_params.h"


/**  Activations Section  ****************************************************/
ai_handle g_network_activations_table[1 + 2] = {
  AI_HANDLE_PTR(AI_MAGIC_MARKER),
  AI_HANDLE_PTR(NULL),
  AI_HANDLE_PTR(AI_MAGIC_MARKER),
};




/**  Weights Section  ********************************************************/
AI_ALIGNED(32)
const ai_u64 s_network_weights_array_u64[56100] = {
  0xcdd9b5a9d2d2b0b0U, 0xdecba3b7d9cda9b5U, 0xd2d7b0b5d6d6ababU, 0xd9d2a9bacddeb5aeU,
  0xd6dcabb1ded0a3bcU, 0xcde4b5b4d2ddb0bbU, 0xded5a3c2d9d8a9c0U, 0xd2e2b0c0d6e1abb6U,
  0xd9dda9c5cde9b5b9U, 0xd6e7abbbdedba3c7U, 0xcdefb5bed2e8b0c6U, 0xdee0a3cdd9e3a9cbU,
  0xd2edb0cbd6ecabc1U, 0xd9e8a9d0cdf4b5c4U, 0xd6f2abc6dee6a3d2U, 0xcdfab5c9d2f2b0d0U,
  0xdeeba3d8d9eda9d5U, 0xd2f8b0d6d6f7abccU, 0xd9f3a9dbcdffb5cfU, 0xd6fcabd1def1a3ddU,
  0xcd04b5d4d2fdb0dbU, 0xdef6a3e3d9f8a9e0U, 0xd203b0e1d602abd7U, 0xd9fea9e6cd0ab5daU,
  0xd607abdcdefca3e8U, 0xcd0fb5dfd208b0e6U, 0xde01a3edd903a9ebU, 0xd20eb0ecd60dabe2U,
  0xd909a9f1cd15b5e5U, 0xd612abe7de07a3f3U, 0xcd1ab5ead213b0f1U, 0xde0ca3f8d90ea9f6U,
  0xd219b0f7d618abedU, 0xd914a9fccd20b5f0U, 0xd61dabf2de11a3feU, 0xcd25b5f5d21eb0fcU,
  0xde17a303d919a901U, 0xd224b002d623abf7U, 0xd91fa906cd2bb5faU, 0xd628abfdde1ca309U,
  0xcd30b500d229b007U, 0xde22a30ed924a90cU, 0xd22eb00cd62eab02U, 0xd929a911cd35b505U,
  0xd633ab08de27a314U, 0xcd3bb50bd234b012U, 0xde2da319d92fa917U, 0xd239b017d638ab0dU,
  0xd934a91ccd40b510U, 0xd63eab13de32a31fU, 0xcd46b516d23fb01dU, 0xde38a324d93aa922U,
  0xd244b022d643ab18U, 0xd93fa927cd4bb51bU, 0xd649ab1ede3da329U, 0xcd51b521d24ab028U,
  0xde43a32fd945a92dU, 0xd24fb02dd64eab23U, 0xd94aa932cd56b526U, 0xd654ab29de48a334U,
  0xd2d9baa9d7d2b5b0U, 0xe4cba9b7decdaeb5U, 0xd7d7b5b5dcd6b1abU, 0xded2aebad2debaaeU,
  0xdcdcb1b1e4d0a9bcU, 0xd2e4bab4d7ddb5bbU, 0xe4d5a9c2ded8aec0U, 0xd7e2b5c0dce1b1b6U,
  0xdeddaec5d2e9bab9U, 0xdce7b1bbe4dba9c7U, 0xd2efbabed7e8b5c6U, 0xe4e0a9cddee3aecbU,
  0xd7edb5cbdcecb1c1U, 0xdee8aed0d2f4bac4U, 0xdcf2b1c6e4e6a9d2U, 0xd2fabac9d7f2b5d0U,
  0xe4eba9d8deedaed5U, 0xd7f8b5d6dcf7b1ccU, 0xdef3aedbd2ffbacfU, 0xdcfcb1d1e4f1a9ddU,
  0xd204bad4d7fdb5dbU, 0xe4f6a9e3def8aee0U, 0xd703b5e1dc02b1d7U, 0xdefeaee6d20abadaU,
  0xdc07b1dce4fca9e8U, 0xd20fbadfd708b5e6U, 0xe401a9edde03aeebU, 0xd70eb5ecdc0db1e2U,
  0xde09aef1d215bae5U, 0xdc12b1e7e407a9f3U, 0xd21abaead713b5f1U, 0xe40ca9f8de0eaef6U,
  0xd719b5f7dc18b1edU, 0xde14aefcd220baf0U, 0xdc1db1f2e411a9feU, 0xd225baf5d71eb5fcU,
  0xe417a903de19ae01U, 0xd724b502dc23b1f7U, 0xde1fae06d22bbafaU, 0xdc28b1fde41ca909U,
  0xd230ba00d729b507U, 0xe422a90ede24ae0cU, 0xd72eb50cdc2eb102U, 0xde29ae11d235ba05U,
  0xdc33b108e427a914U, 0xd23bba0bd734b512U, 0xe42da919de2fae17U, 0xd739b517dc38b10dU,
  0xde34ae1cd240ba10U, 0xdc3eb113e432a91fU, 0xd246ba16d73fb51dU, 0xe438a924de3aae22U,
  0xd744b522dc43b118U, 0xde3fae27d24bba1bU, 0xdc49b11ee43da929U, 0xd251ba21d74ab528U,
  0xe443a92fde45ae2dU, 0xd74fb52ddc4eb123U, 0xde4aae32d256ba26U, 0xdc54b129e448a934U,
  0xd8d9c0a9ddd2bbb0U, 0xe9cbaeb7e4cdb4b5U, 0xddd7bbb5e1d6b6abU, 0xe4d2b4bad8dec0aeU,
  0xe1dcb6b1e9d0aebcU, 0xd8e4c0b4ddddbbbbU, 0xe9d5aec2e4d8b4c0U, 0xdde2bbc0e1e1b6b6U,
  0xe4ddb4c5d8e9c0b9U, 0xe1e7b6bbe9dbaec7U, 0xd8efc0bedde8bbc6U, 0xe9e0aecde4e3b4cbU,
  0xddedbbcbe1ecb6c1U, 0xe4e8b4d0d8f4c0c4U, 0xe1f2b6c6e9e6aed2U, 0xd8fac0c9ddf2bbd0U,
  0xe9ebaed8e4edb4d5U, 0xddf8bbd6e1f7b6ccU, 0xe4f3b4dbd8ffc0cfU, 0xe1fcb6d1e9f1aeddU,
  0xd804c0d4ddfdbbdbU, 0xe9f6aee3e4f8b4e0U, 0xdd03bbe1e102b6d7U, 0xe4feb4e6d80ac0daU,
  0xe107b6dce9fcaee8U, 0xd80fc0dfdd08bbe6U, 0xe901aeede403b4ebU, 0xdd0ebbece10db6e2U,
  0xe409b4f1d815c0e5U, 0xe112b6e7e907aef3U, 0xd81ac0eadd13bbf1U, 0xe90caef8e40eb4f6U,
  0xdd19bbf7e118b6edU, 0xe414b4fcd820c0f0U, 0xe11db6f2e911aefeU, 0xd825c0f5dd1ebbfcU,
  0xe917ae03e419b401U, 0xdd24bb02e123b6f7U, 0xe41fb406d82bc0faU, 0xe128b6fde91cae09U,
  0xd830c000dd29bb07U, 0xe922ae0ee424b40cU, 0xdd2ebb0ce12eb602U, 0xe429b411d835c005U,
  0xe133b608e927ae14U, 0xd83bc00bdd34bb12U, 0xe92dae19e42fb417U, 0xdd39bb17e138b60dU,
  0xe434b41cd840c010U, 0xe13eb613e932ae1fU, 0xd846c016dd3fbb1dU, 0xe938ae24e43ab422U,
  0xdd44bb22e143b618U, 0xe43fb427d84bc01bU, 0xe149b61ee93dae29U, 0xd851c021dd4abb28U,
  0xe943ae2fe445b42dU, 0xdd4fbb2de14eb623U, 0xe44ab432d856c026U, 0xe154b629e948ae34U,
  0xddd9c5a9e2d2c0b0U, 0xefcbb4b7e9cdb9b5U, 0xe2d7c0b5e7d6bbabU, 0xe9d2b9badddec5aeU,
  0xe7dcbbb1efd0b4bcU, 0xdde4c5b4e2ddc0bbU, 0xefd5b4c2e9d8b9c0U, 0xe2e2c0c0e7e1bbb6U,
  0xe9ddb9c5dde9c5b9U, 0xe7e7bbbbefdbb4c7U, 0xddefc5bee2e8c0c6U, 0xefe0b4cde9e3b9cbU,
  0xe2edc0cbe7ecbbc1U, 0xe9e8b9d0ddf4c5c4U, 0xe7f2bbc6efe6b4d2U, 0xddfac5c9e2f2c0d0U,
  0xefebb4d8e9edb9d5U, 0xe2f8c0d6e7f7bbccU, 0xe9f3b9dbddffc5cfU, 0xe7fcbbd1eff1b4ddU,
  0xdd04c5d4e2fdc0dbU, 0xeff6b4e3e9f8b9e0U, 0xe203c0e1e702bbd7U, 0xe9feb9e6dd0ac5daU,
  0xe707bbdceffcb4e8U, 0xdd0fc5dfe208c0e6U, 0xef01b4ede903b9ebU, 0xe20ec0ece70dbbe2U,
  0xe909b9f1dd15c5e5U, 0xe712bbe7ef07b4f3U, 0xdd1ac5eae213c0f1U, 0xef0cb4f8e90eb9f6U,
  0xe219c0f7e718bbedU, 0xe914b9fcdd20c5f0U, 0xe71dbbf2ef11b4feU, 0xdd25c5f5e21ec0fcU,
  0xef17b403e919b901U, 0xe224c002e723bbf7U, 0xe91fb906dd2bc5faU, 0xe728bbfdef1cb409U,
  0xdd30c500e229c007U, 0xef22b40ee924b90cU, 0xe22ec00ce72ebb02U, 0xe929b911dd35c505U,
  0xe733bb08ef27b414U, 0xdd3bc50be234c012U, 0xef2db419e92fb917U, 0xe239c017e738bb0dU,
  0xe934b91cdd40c510U, 0xe73ebb13ef32b41fU, 0xdd46c516e23fc01dU, 0xef38b424e93ab922U,
  0xe244c022e743bb18U, 0xe93fb927dd4bc51bU, 0xe749bb1eef3db429U, 0xdd51c521e24ac028U,
  0xef43b42fe945b92dU, 0xe24fc02de74ebb23U, 0xe94ab932dd56c526U, 0xe754bb29ef48b434U,
  0xe3d9cba9e8d2c6b0U, 0xf4cbb9b7efcdbeb5U, 0xe8d7c6b5ecd6c1abU, 0xefd2bebae3decbaeU,
  0xecdcc1b1f4d0b9bcU, 0xe3e4cbb4e8ddc6bbU, 0xf4d5b9c2efd8bec0U, 0xe8e2c6c0ece1c1b6U,
  0xefddbec5e3e9cbb9U, 0xece7c1bbf4dbb9c7U, 0xe3efcbbee8e8c6c6U, 0xf4e0b9cdefe3becbU,
  0xe8edc6cbececc1c1U, 0xefe8bed0e3f4cbc4U, 0xecf2c1c6f4e6b9d2U, 0xe3facbc9e8f2c6d0U,
  0xf4ebb9d8efedbed5U, 0xe8f8c6d6ecf7c1ccU, 0xeff3bedbe3ffcbcfU, 0xecfcc1d1f4f1b9ddU,
  0xe304cbd4e8fdc6dbU, 0xf4f6b9e3eff8bee0U, 0xe803c6e1ec02c1d7U, 0xeffebee6e30acbdaU,
  0xec07c1dcf4fcb9e8U, 0xe30fcbdfe808c6e6U, 0xf401b9edef03beebU, 0xe80ec6ecec0dc1e2U,
  0xef09bef1e315cbe5U, 0xec12c1e7f407b9f3U, 0xe31acbeae813c6f1U, 0xf40cb9f8ef0ebef6U,
  0xe819c6f7ec18c1edU, 0xef14befce320cbf0U, 0xec1dc1f2f411b9feU, 0xe325cbf5e81ec6fcU,
  0xf417b903ef19be01U, 0xe824c602ec23c1f7U, 0xef1fbe06e32bcbfaU, 0xec28c1fdf41cb909U,
  0xe330cb00e829c607U, 0xf422b90eef24be0cU, 0xe82ec60cec2ec102U, 0xef29be11e335cb05U,
  0xec33c108f427b914U, 0xe33bcb0be834c612U, 0xf42db919ef2fbe17U, 0xe839c617ec38c10dU,
  0xef34be1ce340cb10U, 0xec3ec113f432b91fU, 0xe346cb16e83fc61dU, 0xf438b924ef3abe22U,
  0xe844c622ec43c118U, 0xef3fbe27e34bcb1bU, 0xec49c11ef43db929U, 0xe351cb21e84ac628U,
  0xf443b92fef45be2dU, 0xe84fc62dec4ec123U, 0xef4abe32e356cb26U, 0xec54c129f448b934U,
  0xe8d9d0a9edd2cbb0U, 0xf9cbbfb7f4cdc4b5U, 0xedd7cbb5f2d6c6abU, 0xf4d2c4bae8ded0aeU,
  0xf2dcc6b1f9d0bfbcU, 0xe8e4d0b4edddcbbbU, 0xf9d5bfc2f4d8c4c0U, 0xede2cbc0f2e1c6b6U,
  0xf4ddc4c5e8e9d0b9U, 0xf2e7c6bbf9dbbfc7U, 0xe8efd0beede8cbc6U, 0xf9e0bfcdf4e3c4cbU,
  0xededcbcbf2ecc6c1U, 0xf4e8c4d0e8f4d0c4U, 0xf2f2c6c6f9e6bfd2U, 0xe8fad0c9edf2cbd0U,
  0xf9ebbfd8f4edc4d5U, 0xedf8cbd6f2f7c6ccU, 0xf4f3c4dbe8ffd0cfU, 0xf2fcc6d1f9f1bfddU,
  0xe804d0d4edfdcbdbU, 0xf9f6bfe3f4f8c4e0U, 0xed03cbe1f202c6d7U, 0xf4fec4e6e80ad0daU,
  0xf207c6dcf9fcbfe8U, 0xe80fd0dfed08cbe6U, 0xf901bfedf403c4ebU, 0xed0ecbecf20dc6e2U,
  0xf409c4f1e815d0e5U, 0xf212c6e7f907bff3U, 0xe81ad0eaed13cbf1U, 0xf90cbff8f40ec4f6U,
  0xed19cbf7f218c6edU, 0xf414c4fce820d0f0U, 0xf21dc6f2f911bffeU, 0xe825d0f5ed1ecbfcU,
  0xf917bf03f419c401U, 0xed24cb02f223c6f7U, 0xf41fc406e82bd0faU, 0xf228c6fdf91cbf09U,
  0xe830d000ed29cb07U, 0xf922bf0ef424c40cU, 0xed2ecb0cf22ec602U, 0xf429c411e835d005U,
  0xf233c608f927bf14U, 0xe83bd00bed34cb12U, 0xf92dbf19f42fc417U, 0xed39cb17f238c60dU,
  0xf434c41ce840d010U, 0xf23ec613f932bf1fU, 0xe846d016ed3fcb1dU, 0xf938bf24f43ac422U,
  0xed44cb22f243c618U, 0xf43fc427e84bd01bU, 0xf249c61ef93dbf29U, 0xe851d021ed4acb28U,
  0xf943bf2ff445c42dU, 0xed4fcb2df24ec623U, 0xf44ac432e856d026U, 0xf254c629f948bf34U,
  0xedd9d5a9f2d2d0b0U, 0xffcbc4b7facdc9b5U, 0xf2d7d0b5f7d6ccabU, 0xfad2c9baedded5aeU,
  0xf7dcccb1ffd0c4bcU, 0xede4d5b4f2ddd0bbU, 0xffd5c4c2fad8c9c0U, 0xf2e2d0c0f7e1ccb6U,
  0xfaddc9c5ede9d5b9U, 0xf7e7ccbbffdbc4c7U, 0xedefd5bef2e8d0c6U, 0xffe0c4cdfae3c9cbU,
  0xf2edd0cbf7ecccc1U, 0xfae8c9d0edf4d5c4U, 0xf7f2ccc6ffe6c4d2U, 0xedfad5c9f2f2d0d0U,
  0xffebc4d8faedc9d5U, 0xf2f8d0d6f7f7ccccU, 0xfaf3c9dbedffd5cfU, 0xf7fcccd1fff1c4ddU,
  0xed04d5d4f2fdd0dbU, 0xfff6c4e3faf8c9e0U, 0xf203d0e1f702ccd7U, 0xfafec9e6ed0ad5daU,
  0xf707ccdcfffcc4e8U, 0xed0fd5dff208d0e6U, 0xff01c4edfa03c9ebU, 0xf20ed0ecf70dcce2U,
  0xfa09c9f1ed15d5e5U, 0xf712cce7ff07c4f3U, 0xed1ad5eaf213d0f1U, 0xff0cc4f8fa0ec9f6U,
  0xf219d0f7f718ccedU, 0xfa14c9fced20d5f0U, 0xf71dccf2ff11c4feU, 0xed25d5f5f21ed0fcU,
  0xff17c403fa19c901U, 0xf224d002f723ccf7U, 0xfa1fc906ed2bd5faU, 0xf728ccfdff1cc409U,
  0xed30d500f229d007U, 0xff22c40efa24c90cU, 0xf22ed00cf72ecc02U, 0xfa29c911ed35d505U,
  0xf733cc08ff27c414U, 0xed3bd50bf234d012U, 0xff2dc419fa2fc917U, 0xf239d017f738cc0dU,
  0xfa34c91ced40d510U, 0xf73ecc13ff32c41fU, 0xed46d516f23fd01dU, 0xff38c424fa3ac922U,
  0xf244d022f743cc18U, 0xfa3fc927ed4bd51bU, 0xf749cc1eff3dc429U, 0xed51d521f24ad028U,
  0xff43c42ffa45c92dU, 0xf24fd02df74ecc23U, 0xfa4ac932ed56d526U, 0xf754cc29ff48c434U,
  0xf3d9dba9f8d2d6b0U, 0x4cbc9b7ffcdcfb5U, 0xf8d7d6b5fcd6d1abU, 0xffd2cfbaf3dedbaeU,
  0xfcdcd1b104d0c9bcU, 0xf3e4dbb4f8ddd6bbU, 0x4d5c9c2ffd8cfc0U, 0xf8e2d6c0fce1d1b6U,
  0xffddcfc5f3e9dbb9U, 0xfce7d1bb04dbc9c7U, 0xf3efdbbef8e8d6c6U, 0x4e0c9cdffe3cfcbU,
  0xf8edd6cbfcecd1c1U, 0xffe8cfd0f3f4dbc4U, 0xfcf2d1c604e6c9d2U, 0xf3fadbc9f8f2d6d0U,
  0x4ebc9d8ffedcfd5U, 0xf8f8d6d6fcf7d1ccU, 0xfff3cfdbf3ffdbcfU, 0xfcfcd1d104f1c9ddU,
  0xf304dbd4f8fdd6dbU, 0x4f6c9e3fff8cfe0U, 0xf803d6e1fc02d1d7U, 0xfffecfe6f30adbdaU,
  0xfc07d1dc04fcc9e8U, 0xf30fdbdff808d6e6U, 0x401c9edff03cfebU, 0xf80ed6ecfc0dd1e2U,
  0xff09cff1f315dbe5U, 0xfc12d1e70407c9f3U, 0xf31adbeaf813d6f1U, 0x40cc9f8ff0ecff6U,
  0xf819d6f7fc18d1edU, 0xff14cffcf320dbf0U, 0xfc1dd1f20411c9feU, 0xf325dbf5f81ed6fcU,
  0x417c903ff19cf01U, 0xf824d602fc23d1f7U, 0xff1fcf06f32bdbfaU, 0xfc28d1fd041cc909U,
  0xf330db00f829d607U, 0x422c90eff24cf0cU, 0xf82ed60cfc2ed102U, 0xff29cf11f335db05U,
  0xfc33d1080427c914U, 0xf33bdb0bf834d612U, 0x42dc919ff2fcf17U, 0xf839d617fc38d10dU,
  0xff34cf1cf340db10U, 0xfc3ed1130432c91fU, 0xf346db16f83fd61dU, 0x438c924ff3acf22U,
  0xf844d622fc43d118U, 0xff3fcf27f34bdb1bU, 0xfc49d11e043dc929U, 0xf351db21f84ad628U,
  0x443c92fff45cf2dU, 0xf84fd62dfc4ed123U, 0xff4acf32f356db26U, 0xfc54d1290448c934U,
  0xf8d9e0a9fdd2dbb0U, 0xacbcfb704cdd4b5U, 0xfdd7dbb502d6d7abU, 0x4d2d4baf8dee0aeU,
  0x2dcd7b10ad0cfbcU, 0xf8e4e0b4fddddbbbU, 0xad5cfc204d8d4c0U, 0xfde2dbc002e1d7b6U,
  0x4ddd4c5f8e9e0b9U, 0x2e7d7bb0adbcfc7U, 0xf8efe0befde8dbc6U, 0xae0cfcd04e3d4cbU,
  0xfdeddbcb02ecd7c1U, 0x4e8d4d0f8f4e0c4U, 0x2f2d7c60ae6cfd2U, 0xf8fae0c9fdf2dbd0U,
  0xaebcfd804edd4d5U, 0xfdf8dbd602f7d7ccU, 0x4f3d4dbf8ffe0cfU, 0x2fcd7d10af1cfddU,
  0xf804e0d4fdfddbdbU, 0xaf6cfe304f8d4e0U, 0xfd03dbe10202d7d7U, 0x4fed4e6f80ae0daU,
  0x207d7dc0afccfe8U, 0xf80fe0dffd08dbe6U, 0xa01cfed0403d4ebU, 0xfd0edbec020dd7e2U,
  0x409d4f1f815e0e5U, 0x212d7e70a07cff3U, 0xf81ae0eafd13dbf1U, 0xa0ccff8040ed4f6U,
  0xfd19dbf70218d7edU, 0x414d4fcf820e0f0U, 0x21dd7f20a11cffeU, 0xf825e0f5fd1edbfcU,
  0xa17cf030419d401U, 0xfd24db020223d7f7U, 0x41fd406f82be0faU, 0x228d7fd0a1ccf09U,
  0xf830e000fd29db07U, 0xa22cf0e0424d40cU, 0xfd2edb0c022ed702U, 0x429d411f835e005U,
  0x233d7080a27cf14U, 0xf83be00bfd34db12U, 0xa2dcf19042fd417U, 0xfd39db170238d70dU,
  0x434d41cf840e010U, 0x23ed7130a32cf1fU, 0xf846e016fd3fdb1dU, 0xa38cf24043ad422U,
  0xfd44db220243d718U, 0x43fd427f84be01bU, 0x249d71e0a3dcf29U, 0xf851e021fd4adb28U,
  0xa43cf2f0445d42dU, 0xfd4fdb2d024ed723U, 0x44ad432f856e026U, 0x254d7290a48cf34U,
  0xfed9e6a903d2e1b0U, 0xfcbd4b70acddab5U, 0x3d7e1b507d6dcabU, 0xad2dabafedee6aeU,
  0x7dcdcb10fd0d4bcU, 0xfee4e6b403dde1bbU, 0xfd5d4c20ad8dac0U, 0x3e2e1c007e1dcb6U,
  0xadddac5fee9e6b9U, 0x7e7dcbb0fdbd4c7U, 0xfeefe6be03e8e1c6U, 0xfe0d4cd0ae3dacbU,
  0x3ede1cb07ecdcc1U, 0xae8dad0fef4e6c4U, 0x7f2dcc60fe6d4d2U, 0xfefae6c903f2e1d0U,
  0xfebd4d80aeddad5U, 0x3f8e1d607f7dcccU, 0xaf3dadbfeffe6cfU, 0x7fcdcd10ff1d4ddU,
  0xfe04e6d403fde1dbU, 0xff6d4e30af8dae0U, 0x303e1e10702dcd7U, 0xafedae6fe0ae6daU,
  0x707dcdc0ffcd4e8U, 0xfe0fe6df0308e1e6U, 0xf01d4ed0a03daebU, 0x30ee1ec070ddce2U,
  0xa09daf1fe15e6e5U, 0x712dce70f07d4f3U, 0xfe1ae6ea0313e1f1U, 0xf0cd4f80a0edaf6U,
  0x319e1f70718dcedU, 0xa14dafcfe20e6f0U, 0x71ddcf20f11d4feU, 0xfe25e6f5031ee1fcU,
  0xf17d4030a19da01U, 0x324e1020723dcf7U, 0xa1fda06fe2be6faU, 0x728dcfd0f1cd409U,
  0xfe30e6000329e107U, 0xf22d40e0a24da0cU, 0x32ee10c072edc02U, 0xa29da11fe35e605U,
  0x733dc080f27d414U, 0xfe3be60b0334e112U, 0xf2dd4190a2fda17U, 0x339e1170738dc0dU,
  0xa34da1cfe40e610U, 0x73edc130f32d41fU, 0xfe46e616033fe11dU, 0xf38d4240a3ada22U,
  0x344e1220743dc18U, 0xa3fda27fe4be61bU, 0x749dc1e0f3dd429U, 0xfe51e621034ae128U,
  0xf43d42f0a45da2dU, 0x34fe12d074edc23U, 0xa4ada32fe56e626U, 0x754dc290f48d434U,
  0x3d9eba908d2e6b0U, 0x15cbdab70fcddfb5U, 0x8d7e6b50dd6e2abU, 0xfd2dfba03deebaeU,
  0xddce2b115d0dabcU, 0x3e4ebb408dde6bbU, 0x15d5dac20fd8dfc0U, 0x8e2e6c00de1e2b6U,
  0xfdddfc503e9ebb9U, 0xde7e2bb15dbdac7U, 0x3efebbe08e8e6c6U, 0x15e0dacd0fe3dfcbU,
  0x8ede6cb0dece2c1U, 0xfe8dfd003f4ebc4U, 0xdf2e2c615e6dad2U, 0x3faebc908f2e6d0U,
  0x15ebdad80feddfd5U, 0x8f8e6d60df7e2ccU, 0xff3dfdb03ffebcfU, 0xdfce2d115f1daddU,
  0x304ebd408fde6dbU, 0x15f6dae30ff8dfe0U, 0x803e6e10d02e2d7U, 0xffedfe6030aebdaU,
  0xd07e2dc15fcdae8U, 0x30febdf0808e6e6U, 0x1501daed0f03dfebU, 0x80ee6ec0d0de2e2U,
  0xf09dff10315ebe5U, 0xd12e2e71507daf3U, 0x31aebea0813e6f1U, 0x150cdaf80f0edff6U,
  0x819e6f70d18e2edU, 0xf14dffc0320ebf0U, 0xd1de2f21511dafeU, 0x325ebf5081ee6fcU,
  0x1517da030f19df01U, 0x824e6020d23e2f7U, 0xf1fdf06032bebfaU, 0xd28e2fd151cda09U,
  0x330eb000829e607U, 0x1522da0e0f24df0cU, 0x82ee60c0d2ee202U, 0xf29df110335eb05U,
  0xd33e2081527da14U, 0x33beb0b0834e612U, 0x152dda190f2fdf17U, 0x839e6170d38e20dU,
  0xf34df1c0340eb10U, 0xd3ee2131532da1fU, 0x346eb16083fe61dU, 0x1538da240f3adf22U,
  0x844e6220d43e218U, 0xf3fdf27034beb1bU, 0xd49e21e153dda29U, 0x351eb21084ae628U,
  0x1543da2f0f45df2dU, 0x84fe62d0d4ee223U, 0xf4adf320356eb26U, 0xd54e2291548da34U,
  0x9d9f1a90ed2ecb0U, 0x1acbdfb715cde5b5U, 0xed7ecb512d6e7abU, 0x15d2e5ba09def1aeU,
  0x12dce7b11ad0dfbcU, 0x9e4f1b40eddecbbU, 0x1ad5dfc215d8e5c0U, 0xee2ecc012e1e7b6U,
  0x15dde5c509e9f1b9U, 0x12e7e7bb1adbdfc7U, 0x9eff1be0ee8ecc6U, 0x1ae0dfcd15e3e5cbU,
  0xeedeccb12ece7c1U, 0x15e8e5d009f4f1c4U, 0x12f2e7c61ae6dfd2U, 0x9faf1c90ef2ecd0U,
  0x1aebdfd815ede5d5U, 0xef8ecd612f7e7ccU, 0x15f3e5db09fff1cfU, 0x12fce7d11af1dfddU,
  0x904f1d40efdecdbU, 0x1af6dfe315f8e5e0U, 0xe03ece11202e7d7U, 0x15fee5e6090af1daU,
  0x1207e7dc1afcdfe8U, 0x90ff1df0e08ece6U, 0x1a01dfed1503e5ebU, 0xe0eecec120de7e2U,
  0x1509e5f10915f1e5U, 0x1212e7e71a07dff3U, 0x91af1ea0e13ecf1U, 0x1a0cdff8150ee5f6U,
  0xe19ecf71218e7edU, 0x1514e5fc0920f1f0U, 0x121de7f21a11dffeU, 0x925f1f50e1eecfcU,
  0x1a17df031519e501U, 0xe24ec021223e7f7U, 0x151fe506092bf1faU, 0x1228e7fd1a1cdf09U,
  0x930f1000e29ec07U, 0x1a22df0e1524e50cU, 0xe2eec0c122ee702U, 0x1529e5110935f105U,
  0x1233e7081a27df14U, 0x93bf10b0e34ec12U, 0x1a2ddf19152fe517U, 0xe39ec171238e70dU,
  0x1534e51c0940f110U, 0x123ee7131a32df1fU, 0x946f1160e3fec1dU, 0x1a38df24153ae522U,
  0xe44ec221243e718U, 0x153fe527094bf11bU, 0x1249e71e1a3ddf29U, 0x951f1210e4aec28U,
  0x1a43df2f1545e52dU, 0xe4fec2d124ee723U, 0x154ae5320956f126U, 0x1254e7291a48df34U,
  0xed9f6a913d2f1b0U, 0x20cbe5b71acdeab5U, 0x13d7f1b518d6edabU, 0x1ad2eaba0edef6aeU,
  0x18dcedb120d0e5bcU, 0xee4f6b413ddf1bbU, 0x20d5e5c21ad8eac0U, 0x13e2f1c018e1edb6U,
  0x1addeac50ee9f6b9U, 0x18e7edbb20dbe5c7U, 0xeeff6be13e8f1c6U, 0x20e0e5cd1ae3eacbU,
  0x13edf1cb18ecedc1U, 0x1ae8ead00ef4f6c4U, 0x18f2edc620e6e5d2U, 0xefaf6c913f2f1d0U,
  0x20ebe5d81aedead5U, 0x13f8f1d618f7edccU, 0x1af3eadb0efff6cfU, 0x18fcedd120f1e5ddU,
  0xe04f6d413fdf1dbU, 0x20f6e5e31af8eae0U, 0x1303f1e11802edd7U, 0x1afeeae60e0af6daU,
  0x1807eddc20fce5e8U, 0xe0ff6df1308f1e6U, 0x2001e5ed1a03eaebU, 0x130ef1ec180dede2U,
  0x1a09eaf10e15f6e5U, 0x1812ede72007e5f3U, 0xe1af6ea1313f1f1U, 0x200ce5f81a0eeaf6U,
  0x1319f1f71818ededU, 0x1a14eafc0e20f6f0U, 0x181dedf22011e5feU, 0xe25f6f5131ef1fcU,
  0x2017e5031a19ea01U, 0x1324f1021823edf7U, 0x1a1fea060e2bf6faU, 0x1828edfd201ce509U,
  0xe30f6001329f107U, 0x2022e50e1a24ea0cU, 0x132ef10c182eed02U, 0x1a29ea110e35f605U,
  0x1833ed082027e514U, 0xe3bf60b1334f112U, 0x202de5191a2fea17U, 0x1339f1171838ed0dU,
  0x1a34ea1c0e40f610U, 0x183eed132032e51fU, 0xe46f616133ff11dU, 0x2038e5241a3aea22U,
  0x1344f1221843ed18U, 0x1a3fea270e4bf61bU, 0x1849ed1e203de529U, 0xe51f621134af128U,
  0x2043e52f1a45ea2dU, 0x134ff12d184eed23U, 0x1a4aea320e56f626U, 0x1854ed292048e534U,
  0x14d9fca919d2f7b0U, 0x25cbeab720cdf0b5U, 0x19d7f7b51dd6f2abU, 0x20d2f0ba14defcaeU,
  0x1ddcf2b125d0eabcU, 0x14e4fcb419ddf7bbU, 0x25d5eac220d8f0c0U, 0x19e2f7c01de1f2b6U,
  0x20ddf0c514e9fcb9U, 0x1de7f2bb25dbeac7U, 0x14effcbe19e8f7c6U, 0x25e0eacd20e3f0cbU,
  0x19edf7cb1decf2c1U, 0x20e8f0d014f4fcc4U, 0x1df2f2c625e6ead2U, 0x14fafcc919f2f7d0U,
  0x25ebead820edf0d5U, 0x19f8f7d61df7f2ccU, 0x20f3f0db14fffccfU, 0x1dfcf2d125f1eaddU,
  0x1404fcd419fdf7dbU, 0x25f6eae320f8f0e0U, 0x1903f7e11d02f2d7U, 0x20fef0e6140afcdaU,
  0x1d07f2dc25fceae8U, 0x140ffcdf1908f7e6U, 0x2501eaed2003f0ebU, 0x190ef7ec1d0df2e2U,
  0x2009f0f11415fce5U, 0x1d12f2e72507eaf3U, 0x141afcea1913f7f1U, 0x250ceaf8200ef0f6U,
  0x1919f7f71d18f2edU, 0x2014f0fc1420fcf0U, 0x1d1df2f22511eafeU, 0x1425fcf5191ef7fcU,
  0x2517ea032019f001U, 0x1924f7021d23f2f7U, 0x201ff006142bfcfaU, 0x1d28f2fd251cea09U,
  0x1430fc001929f707U, 0x2522ea0e2024f00cU, 0x192ef70c1d2ef202U, 0x2029f0111435fc05U,
  0x1d33f2082527ea14U, 0x143bfc0b1934f712U, 0x252dea19202ff017U, 0x1939f7171d38f20dU,
  0x2034f01c1440fc10U, 0x1d3ef2132532ea1fU, 0x1446fc16193ff71dU, 0x2538ea24203af022U,
  0x1944f7221d43f218U, 0x203ff027144bfc1bU, 0x1d49f21e253dea29U, 0x1451fc21194af728U,
  0x2543ea2f2045f02dU, 0x194ff72d1d4ef223U, 0x204af0321456fc26U, 0x1d54f2292548ea34U,
  0x19d901a91ed2fcb0U, 0x2bcbf0b725cdf5b5U, 0x1ed7fcb523d6f7abU, 0x25d2f5ba19de01aeU,
  0x23dcf7b12bd0f0bcU, 0x19e401b41eddfcbbU, 0x2bd5f0c225d8f5c0U, 0x1ee2fcc023e1f7b6U,
  0x25ddf5c519e901b9U, 0x23e7f7bb2bdbf0c7U, 0x19ef01be1ee8fcc6U, 0x2be0f0cd25e3f5cbU,
  0x1eedfccb23ecf7c1U, 0x25e8f5d019f401c4U, 0x23f2f7c62be6f0d2U, 0x19fa01c91ef2fcd0U,
  0x2bebf0d825edf5d5U, 0x1ef8fcd623f7f7ccU, 0x25f3f5db19ff01cfU, 0x23fcf7d12bf1f0ddU,
  0x190401d41efdfcdbU, 0x2bf6f0e325f8f5e0U, 0x1e03fce12302f7d7U, 0x25fef5e6190a01daU,
  0x2307f7dc2bfcf0e8U, 0x190f01df1e08fce6U, 0x2b01f0ed2503f5ebU, 0x1e0efcec230df7e2U,
  0x2509f5f1191501e5U, 0x2312f7e72b07f0f3U, 0x191a01ea1e13fcf1U, 0x2b0cf0f8250ef5f6U,
  0x1e19fcf72318f7edU, 0x2514f5fc192001f0U, 0x231df7f22b11f0feU, 0x192501f51e1efcfcU,
  0x2b17f0032519f501U, 0x1e24fc022323f7f7U, 0x251ff506192b01faU, 0x2328f7fd2b1cf009U,
  0x193001001e29fc07U, 0x2b22f00e2524f50cU, 0x1e2efc0c232ef702U, 0x2529f51119350105U,
  0x2333f7082b27f014U, 0x193b010b1e34fc12U, 0x2b2df019252ff517U, 0x1e39fc172338f70dU,
  0x2534f51c19400110U, 0x233ef7132b32f01fU, 0x194601161e3ffc1dU, 0x2b38f024253af522U,
  0x1e44fc222343f718U, 0x253ff527194b011bU, 0x2349f71e2b3df029U, 0x195101211e4afc28U,
  0x2b43f02f2545f52dU, 0x1e4ffc2d234ef723U, 0x254af53219560126U, 0x2354f7292b48f034U,
  0x1fd906a924d202b0U, 0x30cbf5b72bcdfab5U, 0x24d702b528d6fdabU, 0x2bd2faba1fde06aeU,
  0x28dcfdb130d0f5bcU, 0x1fe406b424dd02bbU, 0x30d5f5c22bd8fac0U, 0x24e202c028e1fdb6U,
  0x2bddfac51fe906b9U, 0x28e7fdbb30dbf5c7U, 0x1fef06be24e802c6U, 0x30e0f5cd2be3facbU,
  0x24ed02cb28ecfdc1U, 0x2be8fad01ff406c4U, 0x28f2fdc630e6f5d2U, 0x1ffa06c924f202d0U,
  0x30ebf5d82bedfad5U, 0x24f802d628f7fdccU, 0x2bf3fadb1fff06cfU, 0x28fcfdd130f1f5ddU,
  0x1f0406d424fd02dbU, 0x30f6f5e32bf8fae0U, 0x240302e12802fdd7U, 0x2bfefae61f0a06daU,
  0x2807fddc30fcf5e8U, 0x1f0f06df240802e6U, 0x3001f5ed2b03faebU, 0x240e02ec280dfde2U,
  0x2b09faf11f1506e5U, 0x2812fde73007f5f3U, 0x1f1a06ea241302f1U, 0x300cf5f82b0efaf6U,
  0x241902f72818fdedU, 0x2b14fafc1f2006f0U, 0x281dfdf23011f5feU, 0x1f2506f5241e02fcU,
  0x3017f5032b19fa01U, 0x242402022823fdf7U, 0x2b1ffa061f2b06faU, 0x2828fdfd301cf509U,
  0x1f30060024290207U, 0x3022f50e2b24fa0cU, 0x242e020c282efd02U, 0x2b29fa111f350605U,
  0x2833fd083027f514U, 0x1f3b060b24340212U, 0x302df5192b2ffa17U, 0x243902172838fd0dU,
  0x2b34fa1c1f400610U, 0x283efd133032f51fU, 0x1f460616243f021dU, 0x3038f5242b3afa22U,
  0x244402222843fd18U, 0x2b3ffa271f4b061bU, 0x2849fd1e303df529U, 0x1f510621244a0228U,
  0x3043f52f2b45fa2dU, 0x244f022d284efd23U, 0x2b4afa321f560626U, 0x2854fd293048f534U,
  0x24d90ca929d207b0U, 0x35cbfbb730cd00b5U, 0x29d707b52ed602abU, 0x30d200ba24de0caeU,
  0x2edc02b135d0fbbcU, 0x24e40cb429dd07bbU, 0x35d5fbc230d800c0U, 0x29e207c02ee102b6U,
  0x30dd00c524e90cb9U, 0x2ee702bb35dbfbc7U, 0x24ef0cbe29e807c6U, 0x35e0fbcd30e300cbU,
  0x29ed07cb2eec02c1U, 0x30e800d024f40cc4U, 0x2ef202c635e6fbd2U, 0x24fa0cc929f207d0U,
  0x35ebfbd830ed00d5U, 0x29f807d62ef702ccU, 0x30f300db24ff0ccfU, 0x2efc02d135f1fbddU,
  0x24040cd429fd07dbU, 0x35f6fbe330f800e0U, 0x290307e12e0202d7U, 0x30fe00e6240a0cdaU,
  0x2e0702dc35fcfbe8U, 0x240f0cdf290807e6U, 0x3501fbed300300ebU, 0x290e07ec2e0d02e2U,
  0x300900f124150ce5U, 0x2e1202e73507fbf3U, 0x241a0cea291307f1U, 0x350cfbf8300e00f6U,
  0x291907f72e1802edU, 0x301400fc24200cf0U, 0x2e1d02f23511fbfeU, 0x24250cf5291e07fcU,
  0x3517fb0330190001U, 0x292407022e2302f7U, 0x301f0006242b0cfaU, 0x2e2802fd351cfb09U,
  0x24300c0029290707U, 0x3522fb0e3024000cU, 0x292e070c2e2e0202U, 0x3029001124350c05U,
  0x2e3302083527fb14U, 0x243b0c0b29340712U, 0x352dfb19302f0017U, 0x293907172e38020dU,
  0x3034001c24400c10U, 0x2e3e02133532fb1fU, 0x24460c16293f071dU, 0x3538fb24303a0022U,
  0x294407222e430218U, 0x303f0027244b0c1bU, 0x2e49021e353dfb29U, 0x24510c21294a0728U,
  0x3543fb2f3045002dU, 0x294f072d2e4e0223U, 0x304a003224560c26U, 0x2e5402293548fb34U,
  0x29d911a92ed20cb0U, 0x3bcb00b735cd05b5U, 0x2ed70cb533d608abU, 0x35d205ba29de11aeU,
  0x33dc08b13bd000bcU, 0x29e411b42edd0cbbU, 0x3bd500c235d805c0U, 0x2ee20cc033e108b6U,
  0x35dd05c529e911b9U, 0x33e708bb3bdb00c7U, 0x29ef11be2ee80cc6U, 0x3be000cd35e305cbU,
  0x2eed0ccb33ec08c1U, 0x35e805d029f411c4U, 0x33f208c63be600d2U, 0x29fa11c92ef20cd0U,
  0x3beb00d835ed05d5U, 0x2ef80cd633f708ccU, 0x35f305db29ff11cfU, 0x33fc08d13bf100ddU,
  0x290411d42efd0cdbU, 0x3bf600e335f805e0U, 0x2e030ce1330208d7U, 0x35fe05e6290a11daU,
  0x330708dc3bfc00e8U, 0x290f11df2e080ce6U, 0x3b0100ed350305ebU, 0x2e0e0cec330d08e2U,
  0x350905f1291511e5U, 0x331208e73b0700f3U, 0x291a11ea2e130cf1U, 0x3b0c00f8350e05f6U,
  0x2e190cf7331808edU, 0x351405fc292011f0U, 0x331d08f23b1100feU, 0x292511f52e1e0cfcU,
  0x3b17000335190501U, 0x2e240c02332308f7U, 0x351f0506292b11faU, 0x332808fd3b1c0009U,
  0x293011002e290c07U, 0x3b22000e3524050cU, 0x2e2e0c0c332e0802U, 0x3529051129351105U,
  0x333308083b270014U, 0x293b110b2e340c12U, 0x3b2d0019352f0517U, 0x2e390c173338080dU,
  0x3534051c29401110U, 0x333e08133b32001fU, 0x294611162e3f0c1dU, 0x3b380024353a0522U,
  0x2e440c2233430818U, 0x353f0527294b111bU, 0x3349081e3b3d0029U, 0x295111212e4a0c28U,
  0x3b43002f3545052dU, 0x2e4f0c2d334e0823U, 0x354a053229561126U, 0x335408293b480034U,
  0x2fd917a934d212b0U, 0x40cb05b73bcd0bb5U, 0x34d712b538d60dabU, 0x3bd20bba2fde17aeU,
  0x38dc0db140d005bcU, 0x2fe417b434dd12bbU, 0x40d505c23bd80bc0U, 0x34e212c038e10db6U,
  0x3bdd0bc52fe917b9U, 0x38e70dbb40db05c7U, 0x2fef17be34e812c6U, 0x40e005cd3be30bcbU,
  0x34ed12cb38ec0dc1U, 0x3be80bd02ff417c4U, 0x38f20dc640e605d2U, 0x2ffa17c934f212d0U,
  0x40eb05d83bed0bd5U, 0x34f812d638f70dccU, 0x3bf30bdb2fff17cfU, 0x38fc0dd140f105ddU,
  0x2f0417d434fd12dbU, 0x40f605e33bf80be0U, 0x340312e138020dd7U, 0x3bfe0be62f0a17daU,
  0x38070ddc40fc05e8U, 0x2f0f17df340812e6U, 0x400105ed3b030bebU, 0x340e12ec380d0de2U,
  0x3b090bf12f1517e5U, 0x38120de7400705f3U, 0x2f1a17ea341312f1U, 0x400c05f83b0e0bf6U,
  0x341912f738180dedU, 0x3b140bfc2f2017f0U, 0x381d0df2401105feU, 0x2f2517f5341e12fcU,
  0x401705033b190b01U, 0x3424120238230df7U, 0x3b1f0b062f2b17faU, 0x38280dfd401c0509U,
  0x2f30170034291207U, 0x4022050e3b240b0cU, 0x342e120c382e0d02U, 0x3b290b112f351705U,
  0x38330d0840270514U, 0x2f3b170b34341212U, 0x402d05193b2f0b17U, 0x3439121738380d0dU,
  0x3b340b1c2f401710U, 0x383e0d134032051fU, 0x2f461716343f121dU, 0x403805243b3a0b22U,
  0x3444122238430d18U, 0x3b3f0b272f4b171bU, 0x38490d1e403d0529U, 0x2f511721344a1228U,
  0x4043052f3b450b2dU, 0x344f122d384e0d23U, 0x3b4a0b322f561726U, 0x38540d2940480534U,
  0x34d91ca939d217b0U, 0x46cb0bb740cd10b5U, 0x39d717b53ed613abU, 0x40d210ba34de1caeU,
  0x3edc13b146d00bbcU, 0x34e41cb439dd17bbU, 0x46d50bc240d810c0U, 0x39e217c03ee113b6U,
  0x40dd10c534e91cb9U, 0x3ee713bb46db0bc7U, 0x34ef1cbe39e817c6U, 0x46e00bcd40e310cbU,
  0x39ed17cb3eec13c1U, 0x40e810d034f41cc4U, 0x3ef213c646e60bd2U, 0x34fa1cc939f217d0U,
  0x46eb0bd840ed10d5U, 0x39f817d63ef713ccU, 0x40f310db34ff1ccfU, 0x3efc13d146f10bddU,
  0x34041cd439fd17dbU, 0x46f60be340f810e0U, 0x390317e13e0213d7U, 0x40fe10e6340a1cdaU,
  0x3e0713dc46fc0be8U, 0x340f1cdf390817e6U, 0x46010bed400310ebU, 0x390e17ec3e0d13e2U,
  0x400910f134151ce5U, 0x3e1213e746070bf3U, 0x341a1cea391317f1U, 0x460c0bf8400e10f6U,
  0x391917f73e1813edU, 0x401410fc34201cf0U, 0x3e1d13f246110bfeU, 0x34251cf5391e17fcU,
  0x46170b0340191001U, 0x392417023e2313f7U, 0x401f1006342b1cfaU, 0x3e2813fd461c0b09U,
  0x34301c0039291707U, 0x46220b0e4024100cU, 0x392e170c3e2e1302U, 0x4029101134351c05U,
  0x3e33130846270b14U, 0x343b1c0b39341712U, 0x462d0b19402f1017U, 0x393917173e38130dU,
  0x4034101c34401c10U, 0x3e3e131346320b1fU, 0x34461c16393f171dU, 0x46380b24403a1022U,
  0x394417223e431318U, 0x403f1027344b1c1bU, 0x3e49131e463d0b29U, 0x34511c21394a1728U,
  0x46430b2f4045102dU, 0x394f172d3e4e1323U, 0x404a103234561c26U, 0x3e54132946480b34U,
  0x3ad922a93fd21db0U, 0x4bcb10b746cd16b5U, 0x3fd71db543d618abU, 0x46d216ba3ade22aeU,
  0x43dc18b14bd010bcU, 0x3ae422b43fdd1dbbU, 0x4bd510c246d816c0U, 0x3fe21dc043e118b6U,
  0x46dd16c53ae922b9U, 0x43e718bb4bdb10c7U, 0x3aef22be3fe81dc6U, 0x4be010cd46e316cbU,
  0x3fed1dcb43ec18c1U, 0x46e816d03af422c4U, 0x43f218c64be610d2U, 0x3afa22c93ff21dd0U,
  0x4beb10d846ed16d5U, 0x3ff81dd643f718ccU, 0x46f316db3aff22cfU, 0x43fc18d14bf110ddU,
  0x3a0422d43ffd1ddbU, 0x4bf610e346f816e0U, 0x3f031de1430218d7U, 0x46fe16e63a0a22daU,
  0x430718dc4bfc10e8U, 0x3a0f22df3f081de6U, 0x4b0110ed460316ebU, 0x3f0e1dec430d18e2U,
  0x460916f13a1522e5U, 0x431218e74b0710f3U, 0x3a1a22ea3f131df1U, 0x4b0c10f8460e16f6U,
  0x3f191df7431818edU, 0x461416fc3a2022f0U, 0x431d18f24b1110feU, 0x3a2522f53f1e1dfcU,
  0x4b17100346191601U, 0x3f241d02432318f7U, 0x461f16063a2b22faU, 0x432818fd4b1c1009U,
  0x3a3022003f291d07U, 0x4b22100e4624160cU, 0x3f2e1d0c432e1802U, 0x462916113a352205U,
  0x433318084b271014U, 0x3a3b220b3f341d12U, 0x4b2d1019462f1617U, 0x3f391d174338180dU,
  0x4634161c3a402210U, 0x433e18134b32101fU, 0x3a4622163f3f1d1dU, 0x4b381024463a1622U,
  0x3f441d2243431818U, 0x463f16273a4b221bU, 0x4349181e4b3d1029U, 0x3a5122213f4a1d28U,
  0x4b43102f4645162dU, 0x3f4f1d2d434e1823U, 0x464a16323a562226U, 0x435418294b481034U,
  0x3fd927a944d222b0U, 0x51cb16b74bcd1bb5U, 0x44d722b549d61eabU, 0x4bd21bba3fde27aeU,
  0x49dc1eb151d016bcU, 0x3fe427b444dd22bbU, 0x51d516c24bd81bc0U, 0x44e222c049e11eb6U,
  0x4bdd1bc53fe927b9U, 0x49e71ebb51db16c7U, 0x3fef27be44e822c6U, 0x51e016cd4be31bcbU,
  0x44ed22cb49ec1ec1U, 0x4be81bd03ff427c4U, 0x49f21ec651e616d2U, 0x3ffa27c944f222d0U,
  0x51eb16d84bed1bd5U, 0x44f822d649f71eccU, 0x4bf31bdb3fff27cfU, 0x49fc1ed151f116ddU,
  0x3f0427d444fd22dbU, 0x51f616e34bf81be0U, 0x440322e149021ed7U, 0x4bfe1be63f0a27daU,
  0x49071edc51fc16e8U, 0x3f0f27df440822e6U, 0x510116ed4b031bebU, 0x440e22ec490d1ee2U,
  0x4b091bf13f1527e5U, 0x49121ee7510716f3U, 0x3f1a27ea441322f1U, 0x510c16f84b0e1bf6U,
  0x441922f749181eedU, 0x4b141bfc3f2027f0U, 0x491d1ef2511116feU, 0x3f2527f5441e22fcU,
  0x511716034b191b01U, 0x4424220249231ef7U, 0x4b1f1b063f2b27faU, 0x49281efd511c1609U,
  0x3f30270044292207U, 0x5122160e4b241b0cU, 0x442e220c492e1e02U, 0x4b291b113f352705U,
  0x49331e0851271614U, 0x3f3b270b44342212U, 0x512d16194b2f1b17U, 0x4439221749381e0dU,
  0x4b341b1c3f402710U, 0x493e1e135132161fU, 0x3f462716443f221dU, 0x513816244b3a1b22U,
  0x4444222249431e18U, 0x4b3f1b273f4b271bU, 0x49491e1e513d1629U, 0x3f512721444a2228U,
  0x5143162f4b451b2dU, 0x444f222d494e1e23U, 0x4b4a1b323f562726U, 0x49541e2951481634U,
  0x45d92da94ad228b0U, 0x56cb1bb751cd21b5U, 0x4ad728b54ed623abU, 0x51d221ba45de2daeU,
  0x4edc23b156d01bbcU, 0x45e42db44add28bbU, 0x56d51bc251d821c0U, 0x4ae228c04ee123b6U,
  0x51dd21c545e92db9U, 0x4ee723bb56db1bc7U, 0x45ef2dbe4ae828c6U, 0x56e01bcd51e321cbU,
  0x4aed28cb4eec23c1U, 0x51e821d045f42dc4U, 0x4ef223c656e61bd2U, 0x45fa2dc94af228d0U,
  0x56eb1bd851ed21d5U, 0x4af828d64ef723ccU, 0x51f321db45ff2dcfU, 0x4efc23d156f11bddU,
  0x45042dd44afd28dbU, 0x56f61be351f821e0U, 0x4a0328e14e0223d7U, 0x51fe21e6450a2ddaU,
  0x4e0723dc56fc1be8U, 0x450f2ddf4a0828e6U, 0x56011bed510321ebU, 0x4a0e28ec4e0d23e2U,
  0x510921f145152de5U, 0x4e1223e756071bf3U, 0x451a2dea4a1328f1U, 0x560c1bf8510e21f6U,
  0x4a1928f74e1823edU, 0x511421fc45202df0U, 0x4e1d23f256111bfeU, 0x45252df54a1e28fcU,
  0x56171b0351192101U, 0x4a2428024e2323f7U, 0x511f2106452b2dfaU, 0x4e2823fd561c1b09U,
  0x45302d004a292807U, 0x56221b0e5124210cU, 0x4a2e280c4e2e2302U, 0x5129211145352d05U,
  0x4e33230856271b14U, 0x453b2d0b4a342812U, 0x562d1b19512f2117U, 0x4a3928174e38230dU,
  0x5134211c45402d10U, 0x4e3e231356321b1fU, 0x45462d164a3f281dU, 0x56381b24513a2122U,
  0x4a4428224e432318U, 0x513f2127454b2d1bU, 0x4e49231e563d1b29U, 0x45512d214a4a2828U,
  0x56431b2f5145212dU, 0x4a4f282d4e4e2323U, 0x514a213245562d26U, 0x4e54232956481b34U,
  0x4ad932a94fd22db0U, 0x5ccb21b756cd26b5U, 0x4fd72db554d629abU, 0x56d226ba4ade32aeU,
  0x54dc29b15cd021bcU, 0x4ae432b44fdd2dbbU, 0x5cd521c256d826c0U, 0x4fe22dc054e129b6U,
  0x56dd26c54ae932b9U, 0x54e729bb5cdb21c7U, 0x4aef32be4fe82dc6U, 0x5ce021cd56e326cbU,
  0x4fed2dcb54ec29c1U, 0x56e826d04af432c4U, 0x54f229c65ce621d2U, 0x4afa32c94ff22dd0U,
  0x5ceb21d856ed26d5U, 0x4ff82dd654f729ccU, 0x56f326db4aff32cfU, 0x54fc29d15cf121ddU,
  0x4a0432d44ffd2ddbU, 0x5cf621e356f826e0U, 0x4f032de1540229d7U, 0x56fe26e64a0a32daU,
  0x540729dc5cfc21e8U, 0x4a0f32df4f082de6U, 0x5c0121ed560326ebU, 0x4f0e2dec540d29e2U,
  0x560926f14a1532e5U, 0x541229e75c0721f3U, 0x4a1a32ea4f132df1U, 0x5c0c21f8560e26f6U,
  0x4f192df7541829edU, 0x561426fc4a2032f0U, 0x541d29f25c1121feU, 0x4a2532f54f1e2dfcU,
  0x5c17210356192601U, 0x4f242d02542329f7U, 0x561f26064a2b32faU, 0x542829fd5c1c2109U,
  0x4a3032004f292d07U, 0x5c22210e5624260cU, 0x4f2e2d0c542e2902U, 0x562926114a353205U,
  0x543329085c272114U, 0x4a3b320b4f342d12U, 0x5c2d2119562f2617U, 0x4f392d175438290dU,
  0x5634261c4a403210U, 0x543e29135c32211fU, 0x4a4632164f3f2d1dU, 0x5c382124563a2622U,
  0x4f442d2254432918U, 0x563f26274a4b321bU, 0x5449291e5c3d2129U, 0x4a5132214f4a2d28U,
  0x5c43212f5645262dU, 0x4f4f2d2d544e2923U, 0x564a26324a563226U, 0x545429295c482134U,
  0xd7eab09ddfdfa8a8U, 0xf3d394b4ead79db0U, 0xdfeaa8b3e4e4a3a3U, 0xeae29dbbd7f5b0a7U,
  0xe4eea3aef3de94beU, 0xd700b0b2dff5a8beU, 0xf3e994c9eaed9dc6U, 0xdf00a8c9e4f9a3b9U,
  0xeaf89dd1d70bb0bdU, 0xe404a3c4f3f494d4U, 0xd716b0c8df0ba8d4U, 0xf3ff94dfea039ddcU,
  0xdf15a8dfe40fa3cfU, 0xea0d9de7d721b0d3U, 0xe41aa3daf30a94eaU, 0xd72cb0dedf20a8e9U,
  0xf31594f5ea189df1U, 0xdf2ba8f4e425a3e5U, 0xea239dfcd737b0e9U, 0xe430a3f0f3209400U,
  0xd742b0f4df36a8ffU, 0xf32b940bea2e9d07U, 0xdf41a80ae43ba3fbU, 0xea399d12d74cb0ffU,
  0xe446a306f3359416U, 0xd757b00adf4ca815U, 0xf3409421ea449d1dU, 0xdf57a820e451a310U,
  0xea4f9d28d762b015U, 0xe45ba31bf34b942cU, 0xe2eabb9deadfb3a8U, 0xfed39fb4f5d7a7b0U,
  0xeaeab3b3eee4aea3U, 0xf5e2a7bbe2f5bba7U, 0xeeeeaeaefede9fbeU, 0xe200bbb2eaf5b3beU,
  0xfee99fc9f5eda7c6U, 0xea00b3c9eef9aeb9U, 0xf5f8a7d1e20bbbbdU, 0xee04aec4fef49fd4U,
  0xe216bbc8ea0bb3d4U, 0xfeff9fdff503a7dcU, 0xea15b3dfee0faecfU, 0xf50da7e7e221bbd3U,
  0xee1aaedafe0a9feaU, 0xe22cbbdeea20b3e9U, 0xfe159ff5f518a7f1U, 0xea2bb3f4ee25aee5U,
  0xf523a7fce237bbe9U, 0xee30aef0fe209f00U, 0xe242bbf4ea36b3ffU, 0xfe2b9f0bf52ea707U,
  0xea41b30aee3baefbU, 0xf539a712e24cbbffU, 0xee46ae06fe359f16U, 0xe257bb0aea4cb315U,
  0xfe409f21f544a71dU, 0xea57b320ee51ae10U, 0xf54fa728e262bb15U, 0xee5bae1bfe4b9f2cU,
  0xedeac69df5dfbea8U, 0x9d3aab400d7b2b0U, 0xf5eabeb3f9e4b9a3U, 0xe2b2bbedf5c6a7U,
  0xf9eeb9ae09deaabeU, 0xed00c6b2f5f5bebeU, 0x9e9aac900edb2c6U, 0xf500bec9f9f9b9b9U,
  0xf8b2d1ed0bc6bdU, 0xf904b9c409f4aad4U, 0xed16c6c8f50bbed4U, 0x9ffaadf0003b2dcU,
  0xf515bedff90fb9cfU, 0xdb2e7ed21c6d3U, 0xf91ab9da090aaaeaU, 0xed2cc6def520bee9U,
  0x915aaf50018b2f1U, 0xf52bbef4f925b9e5U, 0x23b2fced37c6e9U, 0xf930b9f00920aa00U,
  0xed42c6f4f536beffU, 0x92baa0b002eb207U, 0xf541be0af93bb9fbU, 0x39b212ed4cc6ffU,
  0xf946b9060935aa16U, 0xed57c60af54cbe15U, 0x940aa210044b21dU, 0xf557be20f951b910U,
  0x4fb228ed62c615U, 0xf95bb91b094baa2cU, 0xf8ead19d00dfc9a8U, 0x14d3b5b40bd7bdb0U,
  0xeac9b304e4c4a3U, 0xbe2bdbbf8f5d1a7U, 0x4eec4ae14deb5beU, 0xf800d1b200f5c9beU,
  0x14e9b5c90bedbdc6U, 0xc9c904f9c4b9U, 0xbf8bdd1f80bd1bdU, 0x404c4c414f4b5d4U,
  0xf816d1c8000bc9d4U, 0x14ffb5df0b03bddcU, 0x15c9df040fc4cfU, 0xb0dbde7f821d1d3U,
  0x41ac4da140ab5eaU, 0xf82cd1de0020c9e9U, 0x1415b5f50b18bdf1U, 0x2bc9f40425c4e5U,
  0xb23bdfcf837d1e9U, 0x430c4f01420b500U, 0xf842d1f40036c9ffU, 0x142bb50b0b2ebd07U,
  0x41c90a043bc4fbU, 0xb39bd12f84cd1ffU, 0x446c4061435b516U, 0xf857d10a004cc915U,
  0x1440b5210b44bd1dU, 0x57c9200451c410U, 0xb4fbd28f862d115U, 0x45bc41b144bb52cU,
  0x3eadc9d0bdfd4a8U, 0x1fd3bfb416d7c8b0U, 0xbead4b30fe4cfa3U, 0x16e2c8bb03f5dca7U,
  0xfeecfae1fdebfbeU, 0x300dcb20bf5d4beU, 0x1fe9bfc916edc8c6U, 0xb00d4c90ff9cfb9U,
  0x16f8c8d1030bdcbdU, 0xf04cfc41ff4bfd4U, 0x316dcc80b0bd4d4U, 0x1fffbfdf1603c8dcU,
  0xb15d4df0f0fcfcfU, 0x160dc8e70321dcd3U, 0xf1acfda1f0abfeaU, 0x32cdcde0b20d4e9U,
  0x1f15bff51618c8f1U, 0xb2bd4f40f25cfe5U, 0x1623c8fc0337dce9U, 0xf30cff01f20bf00U,
  0x342dcf40b36d4ffU, 0x1f2bbf0b162ec807U, 0xb41d40a0f3bcffbU, 0x1639c812034cdcffU,
  0xf46cf061f35bf16U, 0x357dc0a0b4cd415U, 0x1f40bf211644c81dU, 0xb57d4200f51cf10U,
  0x164fc8280362dc15U, 0xf5bcf1b1f4bbf2cU, 0xdeae79d15dfdfa8U, 0x2ad3cab421d7d3b0U,
  0x15eadfb31ae4daa3U, 0x21e2d3bb0df5e7a7U, 0x1aeedaae2adecabeU, 0xd00e7b215f5dfbeU,
  0x2ae9cac921edd3c6U, 0x1500dfc91af9dab9U, 0x21f8d3d10d0be7bdU, 0x1a04dac42af4cad4U,
  0xd16e7c8150bdfd4U, 0x2affcadf2103d3dcU, 0x1515dfdf1a0fdacfU, 0x210dd3e70d21e7d3U,
  0x1a1adada2a0acaeaU, 0xd2ce7de1520dfe9U, 0x2a15caf52118d3f1U, 0x152bdff41a25dae5U,
  0x2123d3fc0d37e7e9U, 0x1a30daf02a20ca00U, 0xd42e7f41536dfffU, 0x2a2bca0b212ed307U,
  0x1541df0a1a3bdafbU, 0x2139d3120d4ce7ffU, 0x1a46da062a35ca16U, 0xd57e70a154cdf15U,
  0x2a40ca212144d31dU, 0x1557df201a51da10U, 0x214fd3280d62e715U, 0x1a5bda1b2a4bca2cU,
  0x18eaf19d20dfe9a8U, 0x34d3d5b42cd7deb0U, 0x20eae9b325e4e5a3U, 0x2ce2debb18f5f1a7U,
  0x25eee5ae34ded5beU, 0x1800f1b220f5e9beU, 0x34e9d5c92ceddec6U, 0x2000e9c925f9e5b9U,
  0x2cf8ded1180bf1bdU, 0x2504e5c434f4d5d4U, 0x1816f1c8200be9d4U, 0x34ffd5df2c03dedcU,
  0x2015e9df250fe5cfU, 0x2c0ddee71821f1d3U, 0x251ae5da340ad5eaU, 0x182cf1de2020e9e9U,
  0x3415d5f52c18def1U, 0x202be9f42525e5e5U, 0x2c23defc1837f1e9U, 0x2530e5f03420d500U,
  0x1842f1f42036e9ffU, 0x342bd50b2c2ede07U, 0x2041e90a253be5fbU, 0x2c39de12184cf1ffU,
  0x2546e5063435d516U, 0x1857f10a204ce915U, 0x3440d5212c44de1dU, 0x2057e9202551e510U,
  0x2c4fde281862f115U, 0x255be51b344bd52cU, 0x23eafc9d2bdff4a8U, 0x3fd3e0b437d7e9b0U,
  0x2beaf4b330e4f0a3U, 0x37e2e9bb23f5fca7U, 0x30eef0ae3fdee0beU, 0x2300fcb22bf5f4beU,
  0x3fe9e0c937ede9c6U, 0x2b00f4c930f9f0b9U, 0x37f8e9d1230bfcbdU, 0x3004f0c43ff4e0d4U,
  0x2316fcc82b0bf4d4U, 0x3fffe0df3703e9dcU, 0x2b15f4df300ff0cfU, 0x370de9e72321fcd3U,
  0x301af0da3f0ae0eaU, 0x232cfcde2b20f4e9U, 0x3f15e0f53718e9f1U, 0x2b2bf4f43025f0e5U,
  0x3723e9fc2337fce9U, 0x3030f0f03f20e000U, 0x2342fcf42b36f4ffU, 0x3f2be00b372ee907U,
  0x2b41f40a303bf0fbU, 0x3739e912234cfcffU, 0x3046f0063f35e016U, 0x2357fc0a2b4cf415U,
  0x3f40e0213744e91dU, 0x2b57f4203051f010U, 0x374fe9282362fc15U, 0x305bf01b3f4be02cU,
  0x2eea079d36dfffa8U, 0x4ad3ebb442d7f4b0U, 0x36eaffb33be4fba3U, 0x42e2f4bb2ef507a7U,
  0x3beefbae4adeebbeU, 0x2e0007b236f5ffbeU, 0x4ae9ebc942edf4c6U, 0x3600ffc93bf9fbb9U,
  0x42f8f4d12e0b07bdU, 0x3b04fbc44af4ebd4U, 0x2e1607c8360bffd4U, 0x4affebdf4203f4dcU,
  0x3615ffdf3b0ffbcfU, 0x420df4e72e2107d3U, 0x3b1afbda4a0aebeaU, 0x2e2c07de3620ffe9U,
  0x4a15ebf54218f4f1U, 0x362bfff43b25fbe5U, 0x4223f4fc2e3707e9U, 0x3b30fbf04a20eb00U,
  0x2e4207f43636ffffU, 0x4a2beb0b422ef407U, 0x3641ff0a3b3bfbfbU, 0x4239f4122e4c07ffU,
  0x3b46fb064a35eb16U, 0x2e57070a364cff15U, 0x4a40eb214244f41dU, 0x3657ff203b51fb10U,
  0x424ff4282e620715U, 0x3b5bfb1b4a4beb2cU, 0x39ea129d41df0aa8U, 0x55d3f6b44cd7ffb0U,
  0x41ea0ab346e406a3U, 0x4ce2ffbb39f512a7U, 0x46ee06ae55def6beU, 0x390012b241f50abeU,
  0x55e9f6c94cedffc6U, 0x41000ac946f906b9U, 0x4cf8ffd1390b12bdU, 0x460406c455f4f6d4U,
  0x391612c8410b0ad4U, 0x55fff6df4c03ffdcU, 0x41150adf460f06cfU, 0x4c0dffe7392112d3U,
  0x461a06da550af6eaU, 0x392c12de41200ae9U, 0x5515f6f54c18fff1U, 0x412b0af4462506e5U,
  0x4c23fffc393712e9U, 0x463006f05520f600U, 0x394212f441360affU, 0x552bf60b4c2eff07U,
  0x41410a0a463b06fbU, 0x4c39ff12394c12ffU, 0x464606065535f616U, 0x3957120a414c0a15U,
  0x5540f6214c44ff1dU, 0x41570a2046510610U, 0x4c4fff2839621215U, 0x465b061b554bf62cU,
  0x44ea1d9d4cdf15a8U, 0x60d301b457d70ab0U, 0x4cea15b351e410a3U, 0x57e20abb44f51da7U,
  0x51ee10ae60de01beU, 0x44001db24cf515beU, 0x60e901c957ed0ac6U, 0x4c0015c951f910b9U,
  0x57f80ad1440b1dbdU, 0x510410c460f401d4U, 0x44161dc84c0b15d4U, 0x60ff01df57030adcU,
  0x4c1515df510f10cfU, 0x570d0ae744211dd3U, 0x511a10da600a01eaU, 0x442c1dde4c2015e9U,
  0x601501f557180af1U, 0x4c2b15f4512510e5U, 0x57230afc44371de9U, 0x513010f060200100U,
  0x44421df44c3615ffU, 0x602b010b572e0a07U, 0x4c41150a513b10fbU, 0x57390a12444c1dffU,
  0x5146100660350116U, 0x44571d0a4c4c1515U, 0x6040012157440a1dU, 0x4c57152051511010U,
  0x574f0a2844621d15U, 0x515b101b604b012cU, 0x4fea289d57df20a8U, 0x6bd30cb462d715b0U,
  0x57ea20b35be41ba3U, 0x62e215bb4ff528a7U, 0x5bee1bae6bde0cbeU, 0x4f0028b257f520beU,
  0x6be90cc962ed15c6U, 0x570020c95bf91bb9U, 0x62f815d14f0b28bdU, 0x5b041bc46bf40cd4U,
  0x4f1628c8570b20d4U, 0x6bff0cdf620315dcU, 0x571520df5b0f1bcfU, 0x620d15e74f2128d3U,
  0x5b1a1bda6b0a0ceaU, 0x4f2c28de572020e9U, 0x6b150cf5621815f1U, 0x572b20f45b251be5U,
  0x622315fc4f3728e9U, 0x5b301bf06b200c00U, 0x4f4228f4573620ffU, 0x6b2b0c0b622e1507U,
  0x5741200a5b3b1bfbU, 0x623915124f4c28ffU, 0x5b461b066b350c16U, 0x4f57280a574c2015U,
  0x6b400c216244151dU, 0x575720205b511b10U, 0x624f15284f622815U, 0x5b5b1b1b6b4b0c2cU,
  0xe4ffae93efefa3a3U, 0xbdf87b3ffe493aeU, 0xef05a3b9f4f49e9eU, 0xfffa93c4e414aea9U,
  0xf40a9eb40bf587c9U, 0xe42aaebfef1aa3cfU, 0xb0a87dfff0f93daU, 0xef30a3e4f4209ec9U,
  0xff2593f0e440aed5U, 0xf4369edf0b2087f4U, 0xe456aeeaef46a3faU, 0xb36870aff3b9305U,
  0xef5ca310f44b9ef5U, 0xff51931be46cae00U, 0xf4619e0b0b4c8720U, 0xfaffc49305efb9a3U,
  0x20df9db314e4a9aeU, 0x505b9b90af4b49eU, 0x14faa9c4fa14c4a9U, 0xa0ab4b420f59dc9U,
  0xfa2ac4bf051ab9cfU, 0x200a9ddf140fa9daU, 0x530b9e40a20b4c9U, 0x1425a9f0fa40c4d5U,
  0xa36b4df20209df4U, 0xfa56c4ea0546b9faU, 0x20369d0a143ba905U, 0x55cb9100a4bb4f5U,
  0x1451a91bfa6cc400U, 0xa61b40b204c9d20U, 0xfffda931aefcfa3U, 0x36dfb3b32ae4bfaeU,
  0x1a05cfb920f4c99eU, 0x2afabfc40f14daa9U, 0x200ac9b436f5b3c9U, 0xf2adabf1a1acfcfU,
  0x360ab3df2a0fbfdaU, 0x1a30cfe42020c9c9U, 0x2a25bff00f40dad5U, 0x2036c9df3620b3f4U,
  0xf56daea1a46cffaU, 0x3636b30a2a3bbf05U, 0x1a5ccf10204bc9f5U, 0x2a51bf1b0f6cda00U,
  0x2061c90b364cb320U, 0x25fff09330efe4a3U, 0x4cdfc9b340e4d5aeU, 0x3005e4b936f4df9eU,
  0x40fad5c42514f0a9U, 0x360adfb44cf5c9c9U, 0x252af0bf301ae4cfU, 0x4c0ac9df400fd5daU,
  0x3030e4e43620dfc9U, 0x4025d5f02540f0d5U, 0x3636dfdf4c20c9f4U, 0x2556f0ea3046e4faU,
  0x4c36c90a403bd505U, 0x305ce410364bdff5U, 0x4051d51b256cf000U, 0x3661df0b4c4cc920U,
  0x3bff059346effaa3U, 0x62dfdeb356e4eaaeU, 0x4605fab94bf4f59eU, 0x56faeac43b1405a9U,
  0x4b0af5b462f5dec9U, 0x3b2a05bf461afacfU, 0x620adedf560feadaU, 0x4630fae44b20f5c9U,
  0x5625eaf03b4005d5U, 0x4b36f5df6220def4U, 0x3b5605ea4646fafaU, 0x6236de0a563bea05U,
  0x465cfa104b4bf5f5U, 0x5651ea1b3b6c0500U, 0x4b61f50b624cde20U, 0x51ff1b935cef10a3U,
  0x78dff4b36ce400aeU, 0x5c0510b961f40b9eU, 0x6cfa00c451141ba9U, 0x610a0bb478f5f4c9U,
  0x512a1bbf5c1a10cfU, 0x780af4df6c0f00daU, 0x5c3010e461200bc9U, 0x6c2500f051401bd5U,
  0x61360bdf7820f4f4U, 0x51561bea5c4610faU, 0x7836f40a6c3b0005U, 0x5c5c1010614b0bf5U,
  0x6c51001b516c1b00U, 0x61610b0b784cf420U, 0xf618b28f0404a3a3U, 0x28f080b818f68fb2U,
  0x430a3cf09099e9eU, 0x18228fddf644b2bbU, 0x9359eca281b80e3U, 0xf670b2e7045ba3fbU,
  0x2847800f184d8f09U, 0x3004cfa309619ef5U, 0x44f6bbb22218dd8fU, 0x3509ca9e53f0acb8U,
  0x2244ddbb3030cfcfU, 0x531bace34422bbddU, 0x305bcffb3535cacaU, 0x444dbb092270dde7U,
  0x3561caf55347ac0fU, 0x4d18098f5b04fba3U, 0x7ff0d7b870f6e7b2U, 0x5b30fbcf6109f59eU,
  0x7022e7dd4d4409bbU, 0x6135f5ca7f1bd7e3U, 0x4d7009e75b5bfbfbU, 0x7f47d70f704de709U,
  0x3a3ac5c56161f5f5U, 0x5329acd62953d6acU, 0x4040bfbf652199ddU, 0xf4e249a91040813cU,
  0xa759e3c94ba12125U, 0x3126af1df2f32c2aU, 0x1b1fc5U, 0x0U,
  0x0U, 0xf108000000000000U, 0x290a300604071102U, 0x167f490e37340514U,
  0x2d30021418fafd00U, 0x8ddcce2151d13f8U, 0xe98196173b3e111eU, 0xcfb804122a0b3527U,
  0xcbc0b0ea0a151dffU, 0xd8bbd0cdabd6cb81U, 0xc5f0ebcfd898a6e5U, 0xb8c3c4debcbdf5d7U,
  0x6cae2f181b2edadU, 0xcff13d9d51b01f8U, 0xc0df9f907f80020U, 0x1107U,
  0x0U, 0x0U, 0xef51b30000000000U, 0x7f8ede28ff0348bfU,
  0xf7f73ad6f555a4ffU, 0xe63ee9d430f7c92dU, 0xed18fb000001d515U, 0x938c0000c936U,
  0x1dcf00002112aU, 0x4d854f664bd80U, 0xca4f3abf5fd9159U, 0xda81e04be70b9fa4U,
  0x7db045ff6ff81f4U, 0x4887f7f088128d4U, 0x7fa87c1b7ff3a4cfU, 0xb5f6d670eb089f39U,
  0xe7c81224f51ba1d1U, 0xdfb2083cc1099f69U, 0xb8bcf50305fc917fU, 0x940000018cU,
  0x218400008363U, 0x6649ffff3178U, 0xb07efffffdc4U, 0x55000400f8fdff81U,
  0xed0081000f1908ebU, 0x3f00ff0000fb017fU, 0x1b006a00097f020dU, 0xc900a600f281fdffU,
  0x1d00fc00ff7ff9f9U, 0x100f60081070001U, 0x2c00e7000a7f0407U, 0xdf009100ef81fef5U,
  0x0U, 0x2d005d000e7f0101U, 0xa60060005f7f0000U, 0xca00fd00f902fe7fU,
  0xe0008100fcc00802U, 0x13009e00f481fd18U, 0x28006e000d7ffb13U, 0xfa55000191b7U,
  0xffffcdfa000002c9U, 0xffff90cd0001389eU, 0x248f000037e9U, 0xc00000000001067bU,
  0xffff8c45ffffc210U, 0xec0e00013596U, 0xffffc6ae0000bc6eU, 0x1e37201fa7810821U,
  0x7f181581edfaef00U, 0x5244a881f7e0624aU, 0x9626f6c604fd4bb5U, 0x1b16c460d9092018U,
  0xab0a1d03be1536a9U, 0xcc66dc1cf3e5f416U, 0x6432e29acce61098U, 0x817f8ed4ef21817fU,
  0xb57faca48c7f1273U, 0xc31e810c0226e251U, 0x1a21d7e7878e7f7fU, 0x1c36100a7f090933U,
  0x1108ee0b81f125d3U, 0x2b43cceb0d1f1242U, 0x8247fc718221b67U, 0x1c13940f1bfe0340U,
  0xf11408e219ed5ce4U, 0x543ffff2671U, 0x88d00003acdU, 0x113b300000d2fU,
  0x1c96000009a0U, 0xfffffb1f00003c07U, 0xffffe37000002b61U, 0x18750001cf8aU,
  0x343cfffffdafU, 0xf0f90c5e1de913e4U, 0x7f1b0c04002700cdU, 0x1ffdf3ef5ef6f108U,
  0x2181d1e200ff00d6U, 0x5fcd7fffcf4fe0cU, 0xe68100e700f800f0U, 0x87ffcfcfa05f601U,
  0x706ff01000c00f4U, 0xfb0908c90c02fbf6U, 0x47fd05040081003bU, 0xc7f2f720110481e4U,
  0xf3068f0effef0032U, 0x0U, 0x0U, 0x5ffcf91ddacb81f8U,
  0xcbfb1610ffe6004eU, 0xfd021403f606fe0bU, 0x47f061f00080003U, 0xfffc321802df00e5U,
  0x267ffd0000120017U, 0xdfff507ecf8f80eU, 0x81dbf1ce00f3009bU, 0x0U,
  0x0U, 0x7f1b01120ef02cfcU, 0xddf95909fefc000dU, 0x8f8ff8105fff0fbU,
  0x48fb1107009a001eU, 0xdffbf9e67f1bf714U, 0x5305cd020022009dU, 0xcfe1d81f9fbf812U,
  0x34f7faf0ff0300fdU, 0x0U, 0x0U, 0x10008fdfff4ff70U,
  0x3fe007f030100fcU, 0x40104ff037ffff2U, 0x104012200ff0000U, 0x81f1fae003fd5600U,
  0x60b51f6001600d2U, 0x810ef200efeaefe9U, 0xeffa7112ff0d002cU, 0x901001afdf8ef0dU,
  0x1d1bea03007f0060U, 0xffd0357ef09f305U, 0xd304fbfaff7f00acU, 0x7ff40103e800270dU,
  0xfa000ef9000200f8U, 0xed0b8c19fae61517U, 0x147ffc0eff12000dU, 0x503fac9f507fb0aU,
  0x810804f200df00e2U, 0xfd0206fe00f6fef5U, 0x97f080600060003U, 0x0U,
  0x0U, 0x1400f1021a057fe1U, 0xeed09ff01fe00d4U, 0xffff0c08f9ff05f9U,
  0x77f091600060005U, 0xf8f802ec7f06fb03U, 0xbd04e1effff100f3U, 0x8feed00fbff020fU,
  0xfb81f9f500f30003U, 0xaad0ffffc483U, 0xfffff3ee0000e008U, 0x874d000034e0U,
  0xffffe8ac40000000U, 0xffffcf44ffffc831U, 0xc00000000000c17cU, 0x5fc1ffff8c50U,
  0x2dd000000527U, 0xffff61b1c6cd51c0U, 0x342effffe18eU, 0xffff6621000019baU,
  0xffffad8afffff7a1U, 0x8646ffffbe2dU, 0x40000000ffffe752U, 0xffffd89a0000e4e5U,
  0x83e400004a42U, 0xeb3fe0cf80f0cfdU, 0x9faf4fda908fc05U, 0xf800fdf0fe134481U,
  0xf3f714fc9504fc28U, 0xdf81ffa238ed7808U, 0x13b90efcbdef217fU, 0x5fe03750c08fe99U,
  0x7f0e1914b8f90abdU, 0xc27fa07ee051bfdU, 0xaeafcfea60ce50dU, 0xf70102f5fb11daccU,
  0x6020dfe8103fe28U, 0x342eff03057ff981U, 0x1050dd8c0037fe6U, 0xff047f10fd167ff9U,
  0xf81de00d2081f1c2U, 0xb40b7f7f7f988170U, 0x817f7f7f818273d1U, 0x7f7f8f817f8109b9U,
  0xa3778181ac024781U, 0x162610fef4e6dd0eU, 0xf6160fe9ca7fbcebU, 0x50af2090514e5e1U,
  0xf181df01167e18c9U, 0xab04fceef2f6fbe5U, 0xfcfb0000bd050713U, 0xfdfc0306f80dc6cfU,
  0x12fc04f6e9fc1926U, 0x7fea0ede06020819U, 0x60ea0001a6eb22b5U, 0xf618f8f20614ede4U,
  0xe3ee7456bcf981a3U, 0xd724f8f2f50904ffU, 0xfefafefdde14d503U, 0xfdfc0402fa0607deU,
  0x90b0efef20a022eU, 0x12700002934U, 0xffffff9a00001139U, 0xfffff8d500000201U,
  0x3a51ffffc845U, 0x33dd0000047aU, 0x7400000609U, 0xffffcf7f00002d55U,
  0x442fffff981U, 0xfffffc9cffffec05U, 0xffffe6de000002caU, 0x32cc0000569cU,
  0xfffff6aeffffbfeeU, 0xf0e00006f7cU, 0xfffff1f600000457U, 0x3c900001bc1U,
  0x25d000064f8U, 0xf80081f2a614b3f7U, 0xe9e3d502eef90cbeU, 0x99dd0af38c002a00U,
  0xc505000100e9ea01U, 0x1700db0bdbe7f7edU, 0x38fcb41efedaf4f9U, 0xe6ff82c4ea05fb00U,
  0xe6562aed00ff7ff6U, 0xf600e434e34115f7U, 0x43fa16110c1b11f5U, 0x7d4df1ad5e60100U,
  0x12c2e92400058100U, 0xf100fa0af131f4abU, 0x39fb7104f81dfdffU, 0xfa7f6b07e70ef200U,
  0xfbfe020900fff908U, 0x20004fe0201fffeU, 0xfd060105fb010e7fU, 0x304fd02010ff300U,
  0xd902ef030001fc0eU, 0xff00ea0306000d03U, 0xfd06feff07fcfb81U, 0xf4080100f6160d00U,
  0xdfa09f600fef6fcU, 0x20018ecfe107ff0U, 0xce0cf802f116e41bU, 0xfffc07db03fcf600U,
  0xa80643c90000dd01U, 0x30200020001U, 0xfe000003fbff01f9U, 0xfffffe7fff00U,
  0xfc01ffff000001fcU, 0xff00fc030305fa00U, 0x2010100fc0044f2U, 0x1fefefffdf07f00U,
  0xf8ff020100fffef9U, 0xf300e920ebf9f6dbU, 0x31040a16f70e03eaU, 0xfac40d10d4e20400U,
  0xf2eef2000fc7ffdU, 0x13f581050902U, 0xe901cefeffff0f08U, 0x15d5fdfd1906ff00U,
  0x10104fa00ff0002U, 0xb00f7aefddc7208U, 0xb25fde21f8f020d2U, 0xfbfdfa4214db0000U,
  0x7ff78f3d000701f3U, 0xf100da0606b4c8efU, 0xff0110f306f8ee4cU, 0xe3f10407d1030500U,
  0x8100f7fb00eaf9f0U, 0xfe00cf137fffeb07U, 0x8030e03fffbf7f1U, 0xcf08f601c9100300U,
  0x3faf80700fbf6f8U, 0xee00ea03d5e8fe5eU, 0x6087f0308fd0cf4U, 0xfa359d09fbea0b00U,
  0xf706feff00fe11f6U, 0x0U, 0x0U, 0x0U,
  0x0U, 0xe10018fa17f30b08U, 0xd1f0eded030bf0f2U, 0xfdff0d8112140000U,
  0xf603f27400080408U, 0xb00feebe77f04d1U, 0xe7000dfcfe3903f3U, 0xfa1d3cebeae70600U,
  0xe5eb0ef9000114f9U, 0x1000200010bff03U, 0xff0206ff02fc7f06U, 0x100fc01ff12b000U,
  0x90002fe00ff04f4U, 0xfc00fb10f7e0d558U, 0x111cfab207fc01f6U, 0xd3f87f2d04ea0000U,
  0x3ecf9f800f6250fU, 0xfd00fde1d1a2059aU, 0xde0076ff01b1e5fdU, 0xfd7f4efcf1c50400U,
  0xf80bfaf7000ac702U, 0x7f00eb0202f70cf8U, 0xafaf5d701f4fefbU, 0xfb00f1fce9eaff00U,
  0xfb0f09f800ff2cffU, 0xf90007f4fd81f9f4U, 0xedf9f4fc01fe0ffaU, 0xf2ed09fdf9000400U,
  0xfefdfdf500b7faf1U, 0x400fdf8fa7ff816U, 0xf7fbdb00fffaedf3U, 0xf6e7f5fef8e7fb00U,
  0x3f402fc003918f0U, 0x10081ead0f0a2fcU, 0xdfd6d4fefb056dc6U, 0xadcc14fa86aafa00U,
  0xc205000c00fee668U, 0x500f20201f6ff06U, 0xfb02f200f5f9fd03U, 0xfcfa00fcf57ff900U,
  0xfc0103fc00020510U, 0xf6000aec06f7f1fcU, 0xaceee97401ff11edU, 0x4bf8f64f22f8ff00U,
  0xdef4f3810012f9feU, 0x80005120216ddadU, 0x719e3a10bf8f7f7U, 0xaff48120f7f8fa00U,
  0xfdcb0cf60005a8f8U, 0x2b00c109c7ce1272U, 0x7feebb2f0fcefbf7U, 0xee1075c4e306f700U,
  0xdca425e600eb89caU, 0x200721b662336fcU, 0x2d2529010101ed30U, 0x6c15fd107fab1d00U,
  0x1e0afee90007fe98U, 0xfc000c0306810100U, 0xb0b1100ebfd7815U, 0xa050b0313fb0500U,
  0x25fb000300bfeb03U, 0xed00df08ff54cc1cU, 0x706eeff06fce838U, 0xeafaeafddce70200U,
  0x8101f9ff0023fb06U, 0xf8a00027cafU, 0xffffd3bb00001a95U, 0x2cc1000013acU,
  0xfffff33400001a22U, 0xffffb84300002decU, 0xffffed4900000a54U, 0x114300005e92U,
  0xc000000000000e7cU, 0xffffcb25000012c3U, 0xffffc756fffffbc8U, 0xfffffd8900006962U,
  0xffffcb6400006c5aU, 0xffffed2b0000ea9bU, 0xc736ffffe5e6U, 0x100e000031d4U,
  0xfffff316000041e6U, 0xd0cce2c9cfc4304bU, 0xc9413b383a42bb4eU, 0xbf374dc334474036U,
  0x3e4f49374fce4081U, 0xb5b0dbadab9e5b64U, 0xba5f565f535e9e76U, 0x985c7fa257726256U,
  0x660e5f5361ae5ea9U, 0xd4cef7ddd4ca3517U, 0xdc2b24342828d131U, 0xc12f41d633332d24U,
  0x36a41f222ed720e8U, 0xafaf1ba2baad5081U, 0xc0534f4d595ab53cU, 0xad4b4bb5553d5251U,
  0x5462555350b45103U, 0x81812b8181817f84U, 0x817f7f7f7f7f817fU, 0x817f77817f7f7f7fU,
  0x7f027f7f7f817f5eU, 0xc7b30ec1bcc443e0U, 0xbf4134473e41b346U, 0xb6423cc5404f3c3bU,
  0x51813a434aba323bU, 0xced064dfddd92c46U, 0xa21f211c3031df02U, 0xde2104e52b05271fU,
  0x2a2d131f17da17f9U, 0xbac27fcdc8cb4258U, 0xa03430364949c125U, 0xd04308d03c1b3a34U,
  0x4500274231c42f3eU, 0xded14ceedbec1c0fU, 0xa61f11252a23d71dU, 0xe922ffe41a191620U,
  0x22ad102320e5111fU, 0xf9dffffc634U, 0x42b20000cd8dU, 0xc15e00027f0eU,
  0x476400016514U, 0xd50effff87adU, 0x1d2e00006743U, 0x223000001079U,
  0x6600001de5U, 0x9ea0000248cU, 0x1711fffffe65U, 0x47ff00010d5fU,
  0x1bc1400001034U, 0x7fa000036b7U, 0x1a960000a4fdU, 0x27a300000c95U,
  0x156100000addU, 0xfba712fd03090623U, 0xf7e7047f040500U, 0xfbfe17040e04fefcU,
  0xfbf5ec0514f2e8fdU, 0x17e222f304f70915U, 0xe13050901eefe9fU, 0xc3bf090bf8811106U,
  0x1126130200f8e710U, 0xe7d39e8102fd031bU, 0xf502fe5ae4fefd22U, 0x21fbf90b00fe040cU,
  0x55f903fdfc080110U, 0xfc0bb78108f1f2f3U, 0x50df664e0fd2001U, 0x16cc08fc0bfb0407U,
  0x680522fbfafe0b05U, 0xec0218000001ff04U, 0xfcfa09f90b02fd81U, 0x7000008fb42fe01U,
  0x204fcfff901f5f7U, 0x118010605bb4c03U, 0x8ee044ede067f0eU, 0xeee904032bfce900U,
  0xa50404a0cffa0c0aU, 0xdf04e3f21716e608U, 0xfa81d413f9183615U, 0x5aabfc61f1558505U,
  0xf3e9bee308fbcaf7U, 0xffaff0fff5792f8U, 0x618119b0ce995feU, 0x3611f512d2f8fd0aU,
  0x7ff8095f40f6cd02U, 0x1fe24fcfbfa010bU, 0xfdfaf30202fffaefU, 0xf9ff02810502U,
  0x609f90201070d09U, 0x16fdf508f9f60efaU, 0x3fbf40806f5fe7fU, 0xfc03020609ae0507U,
  0xfa0af9fd020d05U, 0xeb0c0a09010df8ffU, 0x1307f139ec0cb702U, 0xacdd90a940b00faU,
  0xb7ef0c687f12f303U, 0xf5fadfebfcfefcf8U, 0xe8f5fff7f4f90081U, 0xf1e20807f632ff00U,
  0xbf9230e0000efebU, 0xf70b0822fff8faf9U, 0xfef8ffdb01fb1201U, 0x7f62fe00fd01fbf8U,
  0xdb2d0f00ff03f103U, 0x0U, 0x0U, 0x0U,
  0x0U, 0xfa0f0c0d0b6d8104U, 0xb1708e6e503c104U, 0xf08fe21a8ffe301U,
  0x31f8f55432fc0513U, 0xee5bf2eee700e7b5U, 0x124b7ff6d9e20106U, 0xe325f2b9cf0c3cc8U,
  0xeed98ede4342cfeU, 0xfb0001ff02f90803U, 0x101fefd05fb0981U, 0xfdf9fef6ff470603U,
  0xf00b03f3fbfdf5fcU, 0xe5302d6ccf30bf6U, 0xf57fefceb268edffU, 0x403fe84160b540eU,
  0xea263c1408020c20U, 0xf80f0204f1fd05f1U, 0x7fe810002f6ffffU, 0xed1b02fefa030e13U,
  0x112f407fff5eefeU, 0xd4652bddc3a856daU, 0xab809f183f881ebU, 0xed26715b65f18fafU,
  0xffe6f571412902e7U, 0x501f4d21012fa11U, 0x3bd0df5fa19111aU, 0x10cffa3ff879d9edU,
  0xecd781fffe0bc4ffU, 0x70fb31ee5fe03ffU, 0x717e30d041ffe4fU, 0xe80b03e8017f1e05U,
  0xffd6370204ffff05U, 0xfd0106fd02000200U, 0x4fe01fd00030081U, 0xfe010104fc090301U,
  0x3fff5fff9fefc01U, 0x23121dc00922ff17U, 0xef12b9ddf22f68eU, 0x39da10fce56fe612U,
  0x170ba1e5f6ef810eU, 0xd2d5f144d9dd0e10U, 0xfd1ced342eb0e3b4U, 0xf91cf0ef193036faU,
  0x1d017f12090f25f1U, 0xeafa53d102ffe2e2U, 0x11e00116eafcfa04U, 0x2b05ec07f60001ffU,
  0x200230efe80e047fU, 0xecef04cdf0fb13f3U, 0x115113d00ebe8fbU, 0xee14ffe117e12905U,
  0x31007f1315f92711U, 0xfdc9fd31f1020dffU, 0x7fac71a3416f3f9U, 0x13f2020902e6f113U,
  0x16067f1012fb1cefU, 0x1b1c01012478c3d3U, 0xfd521ecc96ef6704U, 0x26f6d0d89c041fd6U,
  0xade781c89e0dbdf0U, 0x6d6d644040409edU, 0xfb1cf94a5113fbddU, 0xaf5ff4caf42f4a0cU,
  0x38ec7f01f80ff610U, 0xf409f9e9f812fc29U, 0x2e917d605020bffU, 0x1304fa15f602f606U,
  0xf310ccfdfbfcf47fU, 0x524a01dc08fee0f8U, 0x33d43a4f7dadd7fU, 0xe93401c903da3403U,
  0x3b0efe1d160be0eaU, 0xde00d06de060119U, 0xfd3b7f0e11b20bfbU, 0x50907c6d3f114d1U,
  0x2fba9fbf428fa22U, 0x7a40e6106f33a11U, 0xfdffa76e4c40d7eeU, 0x9c7f210feeee2bebU,
  0x6e17582d04211e06U, 0xe78102f6f4d81e27U, 0x3f0160d732ec6fcU, 0x54a7e7f6f909c9caU,
  0x13e1ef15d43afb0dU, 0xf0fdf704f160af00U, 0xfc0d0399fb0399feU, 0x382e0dfeda040d03U,
  0x7f13ed521a01eefaU, 0x203fef906000004U, 0xff020501f9fdff0bU, 0x10500fcff7f06fdU,
  0x1fcfd02fd04f400U, 0x22b723abf1d93813U, 0xe7ee0e63d10ef3fcU, 0x7f7b0af01b0f05fcU,
  0x27e50402ff10dc2aU, 0xd25f02c4ec22eaf2U, 0xff555e9fb6f32008U, 0xd51efab8e40c7fe3U,
  0xe72db101dc023ee5U, 0x23fa361a02fa04ffU, 0x50c07fa06f80b55U, 0xfc0b03f1ff810d02U,
  0x2f2070c0200fa08U, 0x172230f10218ebf5U, 0x100eeee3d8590cbeU, 0x302fc0eeab4fbffU,
  0xec1381e5dd04dce4U, 0xe310fff0feb162feU, 0xfcfffa5810017513U, 0xccdafa012bed0407U,
  0x811109ace6fd251dU, 0xf755047ff4ed0bb3U, 0xfa173337a902d7f8U, 0x11f3dfedee052022U,
  0x3fddc603cd09fff9U, 0x4cf9fa0501f80f10U, 0x606fd0cfcf5fef2U, 0xfa030601fb0df3fcU,
  0x1010d06fb0881f5U, 0xe4e0ff2f68160d7U, 0xcd51aebc8fd8108U, 0xf11e5a376505c2c5U,
  0xfdebde653613e5fdU, 0xf702f481ef25e4edU, 0x60df745e8f4eb00U, 0x6b390f16fa01fafdU,
  0xf8380e201a0504fcU, 0x134f1dd30cf043e2U, 0xe4485215c0e0262cU, 0xac30e2db2eda3800U,
  0x810af4dde80808f6U, 0x41e09faed0bf50cU, 0xffffe2f3dafb0903U, 0x12fe0cfc1401fc7fU,
  0xf7f605081a89e915U, 0xfcf722effd06fd09U, 0x4e805fbfb7f02faU, 0xfefaf31bf700f5edU,
  0x2f9eaf8f90e020eU, 0xef0bfbfcf0ff02f9U, 0xf17ff7faeffe07faU, 0x12ef00b8fcff4cf9U,
  0xfd120b08fe070608U, 0xf622014e081de802U, 0x8d1ffc317150ed6U, 0xfae7fe1afc16f708U,
  0xcff21af7f8fb367fU, 0xfef8d8ba180304fbU, 0x16f0e232f50a1128U, 0x8193021404f9ea02U,
  0x49300705db01fe0cU, 0x29fefdf5f7ef0cfaU, 0xf8f9fcf109fd08f7U, 0xfcf40be600f7150bU,
  0xf6181ff5fbfb8110U, 0xf8dc12ff1452e317U, 0x711130c1b1b4409U, 0xf91181ebd7fa200cU,
  0x708fad5e0fd230bU, 0x9f6fe0ffb0106f0U, 0xa06f9f901ea04feU, 0x5fa02f40ffafd18U,
  0xfa017f0108f504fcU, 0xbd5db1314c01bfaU, 0x21b91b1345d001U, 0x7f96e1d316f8e6baU,
  0xeea15a1af947f30aU, 0xa52f3f809fc11e3U, 0x111032fdceedeaf6U, 0x817bf30504052ddfU,
  0x202203fae721ffedU, 0xab5203edc4e8250aU, 0xea2a5dcad5addf14U, 0xaf7f19fdf4043cf2U,
  0xf25a31b00174beaU, 0xfd06ff120006f8f0U, 0xf70506ec02fafcffU, 0xa281fc03fdfef2ffU,
  0xe22bfc050bfcf90eU, 0xde0efadaf4110308U, 0xf517081400ffdd19U, 0x7f7b0b0df2fbf805U,
  0xf8dc0f08f7fdf922U, 0xc9eefa49dceb1fedU, 0xff15f50a44c4d0f1U, 0x9240be21509040dU,
  0xa157f10000b26f6U, 0x4fd0001fd00ffffU, 0x201feff02fcfc7fU, 0x6fa01fe02d3fdffU,
  0xfd01fe020101fe01U, 0xbe2f9e809ff07fcU, 0x10ebfbfffd04f9f5U, 0xb281fc03f5fb25fdU,
  0x137170813fd07dfU, 0x210a4cac3a23ee10U, 0xe6e221d8c1fb0d11U, 0x25da0e20e80ac310U,
  0xdddd81f5fdf4a504U, 0x9d000000814bU, 0x99b70000681cU, 0xffffcc5400006b5dU,
  0xe8800008166U, 0x2c20000013f5U, 0xb1ac00004ff6U, 0xc0000000ffffaed8U,
  0x1cb9ffffa2b2U, 0x89c300009899U, 0x3dee000023a1U, 0xfffff74600005a59U,
  0x836d0000af2bU, 0xfffff2af0000a732U, 0x5df70000df88U, 0x2ff0cffff8e07U,
  0x3808ffffed72U, 0xbb0d00009423U, 0x554c0000e5f2U, 0x30c40000020fU,
  0x401d00008a10U, 0x89a30000e674U, 0x4096fffff960U, 0xffffbfa100007e63U,
  0x28fe0000495cU, 0x481d00000bc2U, 0xe64bfffff7d9U, 0xffffce170000cdd9U,
  0x43e300001919U, 0x13d6600005721U, 0xffffbda4000073fdU, 0xa9d00006bf0U,
  0x83d800009d8eU, 0x2337f814fe20ff01U, 0xf60023fde5edc907U, 0xb6060711fcf60166U,
  0x390ceffe10fdfab1U, 0x14187f027f0900feU, 0xfdedc405fd078104U, 0xfefbeae84901fe0aU,
  0x222403111afb11f3U, 0xef52026c127f25e5U, 0xe601f8f652d47103U, 0xe3f417d81128f728U,
  0x41f40d2ef5be21c3U, 0x7f818efce1df03f5U, 0xdd5722d042282cdbU, 0xdafc2c0996bdfaeaU,
  0xbbe9e981f319fddeU, 0xee240121f01419feU, 0xf7facf083d074207U, 0x2fff070ef9f704f9U,
  0xf305f0f80efdf90eU, 0x171adcfb9d0e0201U, 0xfe30080bf8006707U, 0xfde6f0f9020007U,
  0x23eafdd7e9000cffU, 0x195f8e912f64dfdU, 0xfffcc4ebccec9d01U, 0xd7e52abd181eed22U,
  0xfec2081d34fffaf7U, 0xe2348de4bedb041dU, 0xc3c827d3440036d9U, 0xd9021d05d00608f3U,
  0x4f7fbb517b2c13a6U, 0x81817f817fc78181U, 0x7f7f81818181817fU, 0x7f7f817f7f7f8181U,
  0x817f7f81817f817fU, 0x81f3be7f3b81817fU, 0x81817f817f7fb67fU, 0x817f7f817f7f8181U,
  0x81e57f65817f8181U, 0x1eaae8e500eeae08U, 0xf1edc0dc57ef6cfdU, 0xfcfc20bbfbf606cbU,
  0xeadbfd2f3af4151fU, 0xef3c590218f01400U, 0xf703fef210efedd7U, 0xefeb0b14efff1902U,
  0x40b7efde061822c8U, 0xee300100f6e903feU, 0xf8fb28002bff46ffU, 0x2708050effff02f9U,
  0xea05f6f708fd0715U, 0x103ea08b311fef8U, 0xa3a0610f4055509U, 0x4fbe2f1ecfaff09U,
  0xf1609cb12fe0923U, 0x1a5ceb1500a22104U, 0xdbe808f6c1f3b2daU, 0xf8e61ad9f5f811ddU,
  0x1a02013c02cf3907U, 0xc9e73df0c0319ddU, 0xf609fcf61002fbd2U, 0xf7e81b190bd50f12U,
  0xe7fade1df0111e21U, 0xc2400f900ee14faU, 0xfe012bfefb01f306U, 0xd706ff11fc05fe34U,
  0x1d03f9f10502f3d1U, 0xf312ef023a10fb02U, 0xe9e50ff204bc0bU, 0x202e9f10b06f706U,
  0xbf5020df2f60226U, 0x89fa00006d63U, 0xffffcccf00001f81U, 0x217500000064U,
  0x30b200000c2eU, 0x4bbfffff5b6U, 0xe500006877U, 0x14500009c40U,
  0x2c5b0000119cU, 0x78fbfffffd3cU, 0xffffe5dcfffff6e5U, 0x353800003307U,
  0xfffffa3efffffccaU, 0xf83fffffffaU, 0x16750000029eU, 0xffffbbd800000ea5U,
  0xffffffc9fffff224U, 0x4b1600001235U, 0xfffffa53000045c7U, 0x1053000008e0U,
  0x26f0000a33fU, 0x7d1200001b6aU, 0xffffc32b0000002dU, 0xffffe73800004e7eU,
  0x771ffffffe7bU, 0x654c0000290aU, 0xfffff0cafffff559U, 0xffffb1cf00007e25U,
  0x1020300001846U, 0x3ca600003e24U, 0xb6cffffd766U, 0x73b0000001bU,
  0xfffff8240000016eU, 0xfc12fb322ff0029aU, 0xd4e4fee511e321eaU, 0x615edd8c2f53402U,
  0x470d562938fb0648U, 0x552902ede4aecccaU, 0xea0711fe8fd935faU, 0xf2a9c916f74308e8U,
  0x183ef659d1cfda7fU, 0xd336d60fe524efe3U, 0x41daf21d061af803U, 0xe9fc20c0d6e30c29U,
  0xe6fe0f1387190ddaU, 0xea6309c89beed30bU, 0xf4e61aee03f6813aU, 0x15ebfa0b222906faU,
  0xeb01f0da09e502c4U, 0x7f0752e200edf10fU, 0x2eaef9f4f6c4f906U, 0x200f0dcfefef210U,
  0xf1101c0131fef30aU, 0xecdd01fbff110ffaU, 0xef46f60502ebf608U, 0xae8f3e718efe106U,
  0xe0efcf3150785dbU, 0xdff02dafa01f208U, 0xf6f9fe01f7f9f705U, 0xff7f10fbfeeafbf2U,
  0x30a020dfd02fafcU, 0xff17effb160502fbU, 0xf40dfe0416f10e03U, 0xf80001fcfef001efU,
  0x191a09ffecf30e09U, 0xf313f5ff1635ebe1U, 0x261016aa232409fbU, 0xeede03def7050720U,
  0x17d63e269e532bd3U, 0x11103cefdaf18135U, 0x91525162812059eU, 0xd464be131804d44aU,
  0xf80834ce2230e404U, 0xfbc6ed1ef5f616e4U, 0xfce9130a001a1005U, 0xeefd223fd8cb2d0dU,
  0xf2e3f9da5ffb06f3U, 0xd04ef0915d7bd75U, 0xe9f9ec2d0ada26fdU, 0xe47ff102e7f6d0e3U,
  0xde0effced032711U, 0xfef301f6f7fffec1U, 0xd315fb12ff0502f1U, 0xeffeec201cefd3fdU,
  0x13f40f11bb0bf404U, 0x1909ffea010c0081U, 0x20dfc0809ebf92cU, 0x370c0600f5f62ceaU,
  0xde08f70ff0f647fcU, 0xfc1ef7ee4b4708ecU, 0xf5f9078a1f1d0efbU, 0xf700353cdd084f1bU,
  0x1edf000142efff5U, 0x12edfb090f11340fU, 0x1c0c1f33ff02120bU, 0xd0d805e0ef03ee27U,
  0x7f3e2f2027f1a09U, 0xf8fff54702310e92U, 0x24feecfbdbe176ddU, 0x2f12dfcff7f320ddU,
  0x7f075d303e2d3947U, 0x3e5f0bf5decfb9b0U, 0xee29f7248be21125U, 0xd0e350014428d9U,
  0x27ecc94cf613995cU, 0x401fdfd0804f902U, 0xa0716080611eef8U, 0xf67f0cfffe0efce2U,
  0xfa0f08e50913fe02U, 0xdafff32815090409U, 0x402fa13faf20b05U, 0xfd000ecafcfa1d09U,
  0xf9f4c5ff0ef90509U, 0x403fe02e80de803U, 0xdf90a0808fd0207U, 0x33efefdfefcfe01U,
  0x70bebf20a0505U, 0xfb0106810201f5f8U, 0x2fdf5fd01f8030dU, 0x300fdfb0108fa01U,
  0xb00f9080bf8f606U, 0xeff0d2fb7fe0fe0eU, 0x16f5f903ff19ebf8U, 0xf60f1174011c3014U,
  0xf50002f6efc29cd3U, 0xf636d207e6f71bddU, 0xfe0253ebf5f6eb16U, 0xefcced0206faeb2aU,
  0xb0b11f0f9dbceeaU, 0x17140b28e6d8ee08U, 0x5f9101af0f8ed06U, 0xe50581bef90c06f7U,
  0xff060f11e32128ecU, 0x6d0222a0509fe05U, 0x70adb08d6122ab3U, 0x15f6e3f313f7f600U,
  0xf14e13e604d9ec08U, 0x6ebf1fc0cebecf3U, 0xfce405f9fbf11118U, 0xf200ec13f4e50016U,
  0xdb0008ea15f00613U, 0x51510f1eefacb2dU, 0xde0506e108020709U, 0xf77f010912fce807U,
  0xec121b00fa0df7e2U, 0xed22cacce5caec08U, 0x3911fef7242228f5U, 0x304e2e001f9d800U,
  0x13111df8700c0eefU, 0xdbe509f43cf32fdcU, 0xf70708fa17da260fU, 0xaca0ae410e8ed0fU,
  0x1dfee71b270681e6U, 0xfb471ca611c4f909U, 0x18fb16fefb0be006U, 0xf8f0fd19f3f730f8U,
  0xd8e3ebcfe8eaebd7U, 0x1e4f3fb0a1b7f0eU, 0x1fe4faf8470bfefeU, 0x229622e6fd240ef6U,
  0xf0d924c8f614f203U, 0xfefffef104f10cf1U, 0x9fff5e2ef0509e9U, 0xf77f07faff0a0c0cU,
  0x2fbecedf2090805U, 0xe6f40b2e03fae101U, 0xf30508f21dfbf807U, 0xaff01e704f7020cU,
  0xfd00a706fe0fe50dU, 0xb17fa02eefde40dU, 0x50d03fffdfdfcf3U, 0xff7f03001514fbf4U,
  0xfa0bfcf305050af7U, 0xe2f8fa4510151cf1U, 0x302060518f60c0eU, 0x4ee16bff6050c08U,
  0xcf8dc0309090e16U, 0x68ff43fb05ff03edU, 0xe981fdfde827e3feU, 0xeb02f503f8ef13faU,
  0x15160e1be00b0926U, 0xfbfe02f10edfe700U, 0xf3e5f71508e809ffU, 0x7eef3f7ec0110f4U,
  0xa01faf6f90512U, 0xfce1fe2ed30c0ae4U, 0xf80afc2d0117f50fU, 0xf000f12edf275d13U,
  0xef01251a012d0322U, 0x270720fcfefe811cU, 0xf5f9f42b044cfe6dU, 0xdace306290ce549U,
  0xdd201b0a21c598c5U, 0xec18fd2d32ebff06U, 0x18e9f7c876087f05U, 0xbafaf6fdfdfe0983U,
  0xe009ed0afc0a09c0U, 0xf104e211151a01fbU, 0x33bc00cff09e103U, 0x8d606113d06150aU,
  0x1c2907600afd31fcU, 0xfcf0f7fad6040bfbU, 0x9f3004f03fdf5feU, 0x5fc2252121a0a0dU,
  0xe5fe14011408e4fcU, 0xf11edf7f7f97fe6U, 0x8eadff3ffdeef18U, 0xddfcff02ec03f207U,
  0xdff5150101bb17fbU, 0x1bf37f1552eee2U, 0xdcf9f4fdf3f80701U, 0xf7fdfbf4f8cd00f2U,
  0x3bf90321f3442531U, 0x4ee4f5eddcf6fd2aU, 0xe929ff14121506faU, 0x7e9f207fa44f8e5U,
  0xffdfeb29fafd1038U, 0x207060305f6ec08U, 0xf00904fdf004fce9U, 0x4ad12f2fffffbfbU,
  0xbfc04fcf80003U, 0x2057f0a0c0cfcU, 0xfb0202ff0202f608U, 0x1fcff01fefc0305U,
  0x211f607f3fb1305U, 0xff5fe6b081407dbU, 0x9fa20fc17f416dcU, 0x1f7fdfe710d121fdU,
  0x3c0323111e02f64fU, 0x142afaf7ede9e2f5U, 0xf023180190b71e0aU, 0xebfdec0cfe1717ddU,
  0x1bf7cd4eb40c362fU, 0xfbdeee0ff4d25de8U, 0x8fb12f9d502fa04U, 0x14fbd17ff80002ffU,
  0xec0d07ff13e2e509U, 0x23260c1d0f0544edU, 0x12f0f3f7020610d8U, 0xec7e4ca09210c03U,
  0x1a0af113deffe4eaU, 0xfa145fe3e4110640U, 0x4f51f4ec05fa2005U, 0x204ede226e32508U,
  0xdffb031d38d9e409U, 0xeb0ff01708190d07U, 0x7f2f3f6e44026e3U, 0x4cdf72ef50604ffU,
  0xaff0e10d7f781feU, 0xb9028100fcfbfb04U, 0xf55eea0c17ea1cfbU, 0xfdf8e8e1ffe7f7e1U,
  0xf6e90a17fa0afefbU, 0x2040cf931e7e6ffU, 0xf009ff0afc011bfdU, 0x10e2ecff14f3faf5U,
  0xb0bff22fef904f2U, 0x8114ab170402020cU, 0xfc5d1a1548eb4a05U, 0x9deff61ef41cf1a6U,
  0xe3dde80b0f0af9c0U, 0xf010d420f8ff00eeU, 0xa12ee0d3b10f117U, 0xeb20030248f90a03U,
  0xfcfc204fe6fa2c11U, 0x109ef01feee00U, 0xfa0600000703fefcU, 0xf9080c0201faf505U,
  0xf809fef2f70701ffU, 0xfafd0302020af400U, 0x107087f04040aU, 0xfd0703bd040a05ffU,
  0x1fd03fd05f8f507U, 0xf801fe1ced08fcd5U, 0x9040402020ce6f8U, 0xb05f4fcee187fedU,
  0x8eae5ee0a1cf7f3U, 0xfb3410ef0ee4c6c5U, 0x910ebe0fddeec4bU, 0xb1cdef516ee2d0dU,
  0xe5f80ef8040cfb1cU, 0xcf3ee9f1131823deU, 0xea02fe0ce60ac9ecU, 0x22f5dd67feff0e03U,
  0xebfb03dcbee2fd05U, 0xfd63080dabee2219U, 0xf800e202fb058147U, 0xe3f80af1f60026faU,
  0xeb1217daedf95e10U, 0xf7274e3317f7dd25U, 0xb2afc41231604f7U, 0xf812c716d3b73907U,
  0x8f1eb32c2150533U, 0xff0cd410d4235c7fU, 0x1911046b15d0103eU, 0xcd1a0628ed204cbaU,
  0x1712102dfcc9f36eU, 0xef012e2f0c2103c4U, 0xe51a091bbe17db0aU, 0xeab0ff16ed260be4U,
  0x14e6d8dbf4070e13U, 0x364cef1c0bf4d119U, 0xce22e50d7f10c807U, 0xb759fbf4f007110fU,
  0xe0f233e7edef2b45U, 0xda0992eaf20609e3U, 0xc981e8fef105f9fdU, 0xdf604ede514c314U,
  0x7f8afa8fcfe140fU, 0xf81afeffd0141e1cU, 0xf010d0d1ff7c0ffU, 0xd23b18d810e6ac23U,
  0x3007f00417fb1fddU, 0xfa11e400262718dbU, 0xd0dc00e310fcf0f4U, 0xeb01f81aee18e403U,
  0x5ece4fd0deff1fbU, 0xe41912f3212f55a5U, 0x8102fb1af721f01bU, 0x592ee7e502e8e326U,
  0x13fef8fafe2ae6beU, 0xfff2ff2df7f63ffbU, 0x2091104e3f511d7U, 0x19d51f14edf5f70bU,
  0x50e39160a08fb19U, 0x3c13f47f0600e7f8U, 0xf9fad601e5f7f219U, 0xff04fcf5fff905f7U,
  0xd8decf11fd1e12feU, 0xf70ce2ea1106ebf2U, 0xf0ea09c5f508f302U, 0x13f80806260808efU,
  0xf1f8fcf6dd01e809U, 0x290002f2317f26U, 0x13f314f408def200U, 0xa329e70009ee04e5U,
  0xdc19fcf9f52bf302U, 0xe135de0fde03feeeU, 0x1fecec16f108da05U, 0xe60bbcda07f1fb03U,
  0xfcf9ea32812516f0U, 0xfb52fff6a2d81903U, 0xf6cefd0fef0aa7d4U, 0xbeff30aed03f0f6U,
  0xea0523f3fcc8f2dbU, 0x401d9e9eef8fb11U, 0x3e4fff41ae813ffU, 0xea00f6f5fcd6aa23U,
  0x2800fafcef0cU, 0xfcfeeff3da14e115U, 0xf513e979f2f61aeaU, 0x4bb6dcf1eafbb4f9U,
  0x60020202242281f2U, 0x521fad2ef04f505U, 0xd04fe07cf16bc03U, 0x7ff8f7e701fe057cU,
  0x2d02f30bf20b1267U, 0xdfe320afc17eb09U, 0x2ea3213f90b030eU, 0xaeff714e6120c0eU,
  0x191001bf1b0c3200U, 0x412ff7f174203ffU, 0xff020305fb00fc05U, 0x108f9d2fcfa0500U,
  0xef6f90d0a15100dU, 0x55f91e030f0204f6U, 0x4110905fd0ee50fU, 0x6fe0509101a06fbU,
  0xeffdf518fbf300f3U, 0x1af00c13d328f108U, 0x1b090a2efcf3eefdU, 0xecf2f8e11cbfb311U,
  0xf00b0f46144810ffU, 0xfac003e63aeb28e6U, 0x6eddcd8daf44481U, 0xff1be3160626f1b5U,
  0x371e1de6e9edb616U, 0x10f4ced51d000003U, 0x32d401f723070a11U, 0xbef1ec00e3f4942eU,
  0xdaf51112f8f90601U, 0x6c6eef7ff332d74U, 0xefef1e21ed1b1812U, 0xfcb5dc200be0810aU,
  0x2b12052914fcbfa9U, 0x4bfa54163512fbeeU, 0xeb8104e02d590603U, 0xefaed1a20062af4U,
  0xe5e7ee08bf210ffbU, 0x150f0c08f9e400f4U, 0xf7f1c9c90923c10aU, 0xe90ec4f41500d731U,
  0xd00fd1c0c0bdcffU, 0xf501e41803c1030fU, 0x7de703dbf908f0f7U, 0xff01042d2d100cf9U,
  0xd6fc1b06dcccf0ffU, 0x3a7ff407b00d2911U, 0xad107f6e4ffcb2aU, 0x32abf6ffed31f417U,
  0xd7f6e5ec1428c6f3U, 0xfdf20d84eb1df2e8U, 0xe33dd00e1fa3fcdU, 0x22e108d42027d6a7U,
  0x32a4cfffb09e5daU, 0xfb1c1c0515e5c2b7U, 0x3002e5e3ce132a3fU, 0xe81f1eb13fb25fbU,
  0x37f706def0f10200U, 0xe8e0e309221d028fU, 0xd2030ce8e803fc0dU, 0xec011650af2211edU,
  0xbc12280db5401017U, 0x1255fef1caebc2d3U, 0xd0df203b1f81040aU, 0xd402d9ecd600b420U,
  0x1c56e8230c2fbf13U, 0x203ffd1e7050607U, 0xf205fbfb3c091402U, 0x60b0ae5f306101aU,
  0x30f0504e1f2fff9U, 0x4e521072cec1900U, 0x7fe380c0ef7e9fbU, 0xf40d09f22ce9f9fdU,
  0x4253f3067ffdfe04U, 0x2fefd2feef52bfbU, 0xfcf9fb01db082bd9U, 0xf5e3f503faebf711U,
  0x3f3ff15fc0bf6f0U, 0xf80b04e51cfc0b10U, 0x608fa070bff0311U, 0xfc0403eefbff04fcU,
  0xf40d7f000ff6f10bU, 0xf2ffc200ff1301efU, 0xf82404c7eec4f7eeU, 0x1a06131d380b7f08U,
  0xfff3dc09ff101328U, 0xf20150a2df83634U, 0xfe1728b8f705e9fcU, 0xf122b7f6f5f6cf41U,
  0xf71af9fdfb3ee607U, 0xeb7b523cbea7e1faU, 0x7a5402354234e72dU, 0x4f2d4da030b8749U,
  0xb738c0edfad0ebe1U, 0xc810ffff30396adU, 0x53d419aaf8b6c696U, 0x7db0e50f020fca55U,
  0x97223bf657bf29b2U, 0xf903ff2511181300U, 0x60af8f7e8fbf317U, 0x91703edff1903faU,
  0xfb001d041e060913U, 0xef2810207e212U, 0xfbf9faf8fb15e5daU, 0xec3100e1fcf0f813U,
  0xf0eefd21fa0304f5U, 0xfee20a2ce1b6f6fdU, 0xff3ee041219141aU, 0xf5e1d93909e28138U,
  0xf0fffc2d201b0f14U, 0xbaefff623fca844U, 0xd7e71038e5ebf4c0U, 0x72801172314c51fU,
  0xf91c0f1b3d00aadeU, 0xefe8fbbde42800f8U, 0x1d07f508fdfe02f3U, 0x11082ef801fff2efU,
  0xeefcecf2eedc4d11U, 0x813bd8f4ce02110eU, 0xfb1301fe10fed658U, 0x14e2e8da10c50c03U,
  0xf2b8170e16e21c00U, 0xfdd806cf060528ffU, 0x503fbdff107f4d8U, 0xf7011b3b06f814f8U,
  0xf71ef7ed19fafe1aU, 0xa0700ee18ee140dU, 0xf006fcf4f9ec167fU, 0x1bb0fce3fdfbf7feU,
  0x12e30c09f81a140aU, 0xf202b6bfe4d80915U, 0xfbf08fb1b1d0d04U, 0xfcf1d9d5c401de1dU,
  0x20f9f520f527de14U, 0xf2b1f7fed315551eU, 0xe1050557ef81ae46U, 0x12dc330cdb1bbfeeU,
  0x19eeef1317ebe82eU, 0xff151402fe200017U, 0xfe1307fb1304f1f8U, 0xfa12fde6fcfe0af6U,
  0x306e1ffe3080115U, 0xebe8ed1d0f0649dfU, 0x1afff20e0815fd18U, 0xd810eeafef92ceaU,
  0x15fff312e40c2106U, 0x2fd0102fc03faU, 0x40205ff02fb0e09U, 0x2810a05fcf7fe05U,
  0xfef9fefc09fdfaU, 0x5f503d0fefefc02U, 0xfa03040219fcfe0dU, 0x600fd0f0106f902U,
  0x1f609f909fae703U, 0xf01bc4fa101409U, 0x1704fefe0418ffU, 0x33043fd13fa11f3U,
  0xa0efeff0914080aU, 0xd4e70bec080b0304U, 0xfe08fff7fe081d41U, 0xf011fce7060a060cU,
  0xce28110020ceb02U, 0xe06c0c55df0b12e8U, 0x621064c040daad8U, 0xb5fd13c9cc5805b6U,
  0x2ec4f317dd7f31adU, 0x35f81b0b0d13397dU, 0x635e02ed81c202eU, 0x9cb2fedbe308a47bU,
  0xb6ad30b1b3b0b654U, 0x163213f8e147b810U, 0x100ef02021ee0912U, 0xed060681e0d0e8f9U,
  0x614132be83005fdU, 0x19b9f4ef1f01e013U, 0xe6070a0310e222f2U, 0x3dbdeb05053f06e6U,
  0x10b1020a24dc050dU, 0x150781ea112facf9U, 0xa08b04e60c050118U, 0x504dd85bad5e1eaU,
  0xfe35024dc3360c11U, 0xf301ff04ffbde010U, 0xed1322e8f4d426b5U, 0xe846bb0901f2a9f2U,
  0xccbf016100686cdU, 0xee04d6fcf61afeU, 0x910140bf6fd03f6U, 0x1116bffd07ff07f7U,
  0xebfd18f8e304fc11U, 0x8f30427021323ffU, 0xfaf8fb140b1ac7U, 0xfb0004ebfc0009fdU,
  0xf40b81f1f8f9e405U, 0x65ac000090b6U, 0xffffa17a00003cbcU, 0xffff99b60000cfd9U,
  0x156000001393U, 0xffffe1c80000cbdcU, 0xffffea91000024a4U, 0x3a7200004295U,
  0x75ff00003afcU, 0xffffdfcc00001839U, 0xffffe9eafffff171U, 0xffff407400007709U,
  0x525000015e8U, 0xffff8f3600004e75U, 0x3f52ffffc07bU, 0x482700005bf5U,
  0xffffc936fffff1c1U, 0x38b5ffff716cU, 0x25450001326eU, 0x2891ffffd3d7U,
  0x8a8c00007a72U, 0x27d90000152eU, 0x405f00001bfaU, 0xffffdb4e00008ccbU,
  0xa1ee0000d9caU, 0xffffcc06000034a8U, 0x190dcfffffaa5U, 0xe36e00005fdcU,
  0xffff7d06ffffc865U, 0x5b3400008b55U, 0xffffaa7a000058ebU, 0x2b6600005036U,
  0x117200015c4dU, 0xc3404540435847dcU, 0xb53f82b53b3e1562U, 0xbbbe51ca3fb3b947U,
  0x4c3cbbcc524bb9ccU, 0xb65154c14daea4b3U, 0x415a433e3f43d1c7U, 0x3cc2a4d1b53f9cd4U,
  0xbdc74ebcd0399b3dU, 0xad5b60595d715cceU, 0x315d07a35664b57fU, 0x9dac5fa85aa15759U,
  0x504ba62e69699fb8U, 0xa3617fa05b9f3aa5U, 0x5c7f5c4f5056bba8U, 0x58a981b5aa5b81acU,
  0xadb360acab5e8150U, 0xde28292336352deaU, 0x20323ad827373f39U, 0xc9dc37d029de121cU,
  0x2c27de5d2a37dbd2U, 0xb23746de28e615c9U, 0x2a47231b3028ead2U, 0x27cfc6e4ce2acfc7U,
  0xd5de29d4db29c130U, 0xa75a625a665c6665U, 0x815c819c555a25baU, 0xa89c6ba660a6815eU,
  0x5963a0bc67559cedU, 0x99645d8f6391819eU, 0x65ca5f555e61a8baU, 0x4aa118a88d6692bdU,
  0xa3a96b9caf591e58U, 0x817f7f7f7f7f7f7fU, 0x407f34817f7f81a7U, 0x81817f817f81667fU,
  0x7f7f81477f7f81dbU, 0x817f7f817f814881U, 0x7fb67f7f7f7f8181U, 0x7f813381817f8b81U,
  0x81817f81817f2f7fU, 0xcd3739344349474aU, 0x3d4661be353f47caU, 0xc3c249ca3acc222bU,
  0x413bcc7f2438d5e6U, 0x9e5150c03ada25bcU, 0x38dc3c384135d4b1U, 0x35b81eccc43fadb1U,
  0xc7bf3ccfc7381443U, 0xd82f30272d253ac6U, 0xbd38c2cc38321decU, 0xdbd233c62ec8bd29U,
  0x2829d0e93530d750U, 0xba343bcd31d7c5cbU, 0x2fec1f243236c4daU, 0x26cb24cfc734c3dcU,
  0xd7d934cdda2a4c34U, 0xcf3e4035353c57a5U, 0x1d5017c74a44c0e5U, 0xc5c44aaf3cad2d38U,
  0x4138c82f4038c27fU, 0xa64255c23fd51ec4U, 0x39d53940463cb1b7U, 0x35bc40c5d144b8c3U,
  0xc3c340c0cb3a654bU, 0xea1b1b1b282627ceU, 0x19262af0192817f1U, 0xdee62cdc17ea1b17U,
  0x2819e94c171beb46U, 0xcb2633ed23f810dbU, 0x1aed1a242019ecd4U, 0x1fe126e3f024d4dcU,
  0xdce21ee1e41b272bU, 0x143fffffc29U, 0x3f6e000015b2U, 0xffffa9bf0000238eU,
  0x190f300001364U, 0x30effffffeeU, 0xbe000001bdcU, 0x7750000c82bU,
  0x8143000008bfU, 0xffffef6100001d61U, 0x22d10000a7f1U, 0x4dc000219c9U,
  0x24cc600023278U, 0xc6aefffffe5eU, 0xf4c3000006caU, 0x1bbd10000439bU,
  0x1df00003daaU, 0xcaca0001b414U, 0xcfe00026806U, 0xfffff6bd0000d168U,
  0x93960000000eU, 0x176ab00023a8bU, 0x15c00000154aU, 0xfffffdd9fffff916U,
  0x2702ffffe884U, 0x5aa50000cdb5U, 0x279ec0000104fU, 0xcab300015e8aU,
  0x190b0000e945U, 0xffffef30fffffbd4U, 0x9f57fffffa1cU, 0x44400020250U,
  0x815200012230U, 0x17f6e822fa08070aU, 0xd1d09fc0a101301U, 0xae706e814f91d16U,
  0xadaf92a0e0e07e1U, 0x4e7e6ecf7f904f7U, 0x1a1bf41120fdf5f8U, 0x8fb7ffded0007dcU,
  0xbf925f404f9c2U, 0x3dd83a711ed13e8U, 0xf8f4f101ddd9fb12U, 0xaecc44fcd4f00a01U,
  0x142b15150e0806f3U, 0x1a862c330556ebddU, 0x97fadea3007801f8U, 0x4e1218e70f81efe0U,
  0xe7234308ebfb0f2eU, 0xdeffa3c8e70cfaffU, 0x10eeafd0703faf2U, 0xfd171322fffee8e7U,
  0x9fc8108fa1007fdU, 0x1abc0428fb1efdd0U, 0xffcfcfeff04150bU, 0xf6e6fc0cfbd4252bU,
  0xe9d314fb1f04d90fU, 0xf1eb1a040f0002f9U, 0xf9fd07f610fe0df8U, 0xeff6f3f711f406e0U,
  0xf21781f71004e50cU, 0x1f2fffe01070313U, 0x60b0505fff6f309U, 0xf1113e1fc0f07faU,
  0xf605fc0707ecf90bU, 0x4df80f84ccf3e7ddU, 0xfd8ed490a080414U, 0x7f65b2260716e2d1U,
  0xe1049323dafdf0e6U, 0xece4cf4e30b40f0bU, 0x58f3013b3eea17deU, 0xa100a4d473e1cedU,
  0xec1cde9e2014d14bU, 0x14fdf61afb14f4f7U, 0x41faf90214233105U, 0x3f808c9183e001fU,
  0xe8f6064a64050802U, 0x1110070bdb21ed1eU, 0xf7f408c5d314057fU, 0xfcf2fffe0227f0e9U,
  0xe4e907ece3e6f4f0U, 0x18ffde0efdea0dd6U, 0x3e212090204e9f0U, 0x70dfd7f0ff2f4f9U,
  0xef805f108feffe6U, 0x5f61404fef70213U, 0xfdfe01a21b000c85U, 0xfd01f103f337eb09U,
  0xf3fbed020307eef5U, 0x4df9f8e17aea0407U, 0x1d13dffd10e10adbU, 0x63fd09c4ef09117fU,
  0x80067f903f422eeU, 0x101e08fff9f2f0faU, 0xf612eb0913dd17e1U, 0xf823135a1224040bU,
  0x1b2ecbe9f4f80ff7U, 0xfc000df0b9fc10eeU, 0xfff513ff011d0b01U, 0xd308ebfcfdfb0cb5U,
  0x3e905ef0a000bU, 0xfe0cf927fa08120cU, 0xeffa00f4f60404feU, 0xfaec06e2f0e4ed09U,
  0xe7040509127ff409U, 0xfcf9db33f4e612f0U, 0xe80eac270425f608U, 0xf73d34f7e628c314U,
  0xf52418fad01227f1U, 0x26c301033125dfd1U, 0xfd06f112f5095a1eU, 0xb806dde03d13f944U,
  0x1bfad3cd1d088160U, 0x1ffa01f7faffed09U, 0xfd0103037ffe0401U, 0xff01f000f9060607U,
  0xfffafb0404f6ea16U, 0xf4ee1604f3f104e3U, 0x300010302edfd00U, 0x1eaf407fff1fa0bU,
  0x13e6121305030802U, 0xd08ed0801fdf8fdU, 0xfae8f2f9f6f8fefeU, 0x31101e5060dfdfdU,
  0x809f6267fffecfbU, 0xfdf2fc0203fafe05U, 0xfdfe0b001303f424U, 0xfe03f0fbf70e01f5U,
  0xdeb03f906ffffefU, 0xa1dc3ef2da0be8f1U, 0x1a272dfd1903110aU, 0x8d514163b3539f7U,
  0xf08f200de6c52f1bU, 0xff06d1d885c6fcbcU, 0x810df70c6703d6f6U, 0x11f1fbf0ec3c0aecU,
  0xe9fc04f7f5fc01bdU, 0x10f1c70609811500U, 0x213913f4f50dfa10U, 0x215139918e60917U,
  0xf3e6012f4f24f40cU, 0xf303f60bff0a101bU, 0xee1cf32f0a28e719U, 0x1d05f104ea0403e7U,
  0x1deb1801eb0306f4U, 0x7f206e20037142bU, 0xee081ce9e8f8fc10U, 0xbc91ab1f045103cU,
  0xfa13060c41e51235U, 0x160208ebe62409f9U, 0xa0b03d5c3ebd17fU, 0x15fbfcfaeb0ff5f1U,
  0xeff3d3ec1b1eeaU, 0xa4eff4d9f2fd000fU, 0x4e9f7d122e40f09U, 0xd202f23e0e180aU,
  0xfee108fd0be8f6ffU, 0xec00fdd8e8e2087fU, 0x2100120d030ae0e1U, 0xfefe0c0ce4ebeddbU,
  0xf5f4f102fc1016dfU, 0xf32d11ebf325f8f1U, 0x1644ea47013444fcU, 0x27fee10e01fd6f38U,
  0x2cc125040f3235e1U, 0xe537f1f5dc0281e2U, 0x8c7d2f54ee4fef1U, 0xfb1b051203f1ecb9U,
  0xd7f4e1d4b00bc6f6U, 0xdfce60b040c0ddfU, 0xffe2fd02fdfff605U, 0xfefe04f11231fa08U,
  0xfbeafd012be40ee5U, 0xf5fdfe06f81804ffU, 0x1b0009810d14fa0aU, 0x2000002e84cf600U,
  0xfbf2e616ff091511U, 0x20a3b1ec4b39e4afU, 0x6180af0f4ef1ae2U, 0xe40a221564e816e8U,
  0x53002284d35080cU, 0x70cfbf0affeb0908U, 0x9f04eb2309f1adf7U, 0x2efcff0782411899U,
  0x935285de31a2d81U, 0x5f2bd7d407d45106U, 0xfacfe21ee7dcf2f1U, 0xeeddeb1ac80c03c3U,
  0x117fb22de827d807U, 0xedeeecfd2ef34a03U, 0x39091213ff1a02e5U, 0xe6140ae61bb9f412U,
  0xe30e18dc2600daefU, 0xef75eef1004f7ecU, 0x22f31705002a0011U, 0x4f006ede6f2e70eU,
  0xf611fb0e16da1316U, 0x16f60ffd7f0b0cb5U, 0x9aef01fd020410f4U, 0x1009f213da5604f5U,
  0x2b14614703f12805U, 0xbd023df921131420U, 0xe419260602f7261fU, 0xfceee600f83826e1U,
  0xde81d2e8dfd01ce9U, 0x94eff41d4ce4f1efU, 0x51f54aef3ee85502U, 0xcc1ed92c4ac604f6U,
  0xde001d07eb0dfeU, 0xf8fa03f4f902f2ffU, 0x7f0df6fff8fe0a04U, 0xf3fb1700fb0a180aU,
  0x2f207f304f9ff07U, 0x505fefa0505f90cU, 0xf204fc061c03fc0cU, 0xcf3f6f207f10305U,
  0xfd0b120a030effffU, 0x1f011ff0fa05e617U, 0xefe5cf01e20ceefcU, 0xfa4608138deee2f7U,
  0x3bfe0ffa1a360919U, 0xf40e9e2d7f401dbcU, 0xd8fe0ce213f62623U, 0x1bcefa100df93c05U,
  0xf8cd34fe22efe91bU, 0x130df00d0a5ddb16U, 0x5e711f922d2f7ecU, 0xfdd1176eefa50f01U,
  0x1de2c36b8d51d16U, 0x5f723d4d90dc4f3U, 0xc8e7e52cfef0ed81U, 0x1bfc2110d9080feaU,
  0xf9e5f3fae5e7fee1U, 0x26f1df0fc0f898e1U, 0xede70c94e50f1df1U, 0x26cb48d409f9161bU,
  0xfae5d91418057fc7U, 0xf800c6d01f1f01c9U, 0x4510de0cf1f7bcdcU, 0x3682fcf30715eecfU,
  0xe0be8a0a19003b21U, 0xfbedfbfffa4815fdU, 0x3cbe13f0110506d5U, 0xea16057f01faf7d6U,
  0x71a1f88ba01f1d8U, 0x1bf1f202f0ef0b36U, 0xe7fae024ee1cf795U, 0xffe01eab0bfc0805U,
  0x10160bf62800dc04U, 0xbfef80c2314e7f9U, 0x24fe1be6fb220fdfU, 0xf61ef35f198107feU,
  0x11de11cb9800f1faU, 0x12261eeee3f61617U, 0xb3030368da0617ccU, 0xed0209050cb5f5d5U,
  0xfaf70a1e09e2ec1eU, 0xe79ae329030515a1U, 0xffea15f80b1c03e9U, 0xf652f50906f62101U,
  0x13b7f9fc07e8ebbfU, 0x1422fb0c020a1935U, 0xe7c5f40ee3fd0f27U, 0xa18e1fa811901e4U,
  0x9dbec26fd12f7f1U, 0x6f00bf1bff010fcU, 0x17f3ec0bf00efdfaU, 0x7ed010aef01048fU,
  0x5102203fff4010cU, 0xf6f8e81206f70906U, 0xff0cf90afaf1fe06U, 0xf8e910cefcfef6dfU,
  0xf9010609167ff906U, 0xfd10e2205206d702U, 0xf3f9edf7f9fe020cU, 0xd802ecfef9ff0d75U,
  0x1027fed0021f807U, 0x1df2280c0623f9e5U, 0x81109ef1e1af30cU, 0xd8fcf513fdee0cf8U,
  0xda02012bfb1f0205U, 0x111904f903ff07U, 0xfb120cf80af9ff04U, 0x4f910dffd0ee514U,
  0xfaedf3e61f000d0cU, 0xf20ee50bf1f77f0bU, 0x11a01fbec0a010fU, 0x100ef706e618fae3U,
  0xefeef6f3f1eb1705U, 0xdfcdcfff9f81c03U, 0xf2f51b7f02fefafcU, 0xfcf1e8e9070206f8U,
  0x18fb0ffffc07b702U, 0xf60b050409f302f5U, 0x19f72014fd0df2fbU, 0xf5560ff8fb10f5e5U,
  0xfef028293c09fa1bU, 0xbfeeffcfc06f2e7U, 0x7070400f70004ecU, 0x817fa97040f0406U,
  0xf30df7060a0af5eeU, 0xff7030009e906f1U, 0xfef5ff5ff4faf97fU, 0x1060100f3e3f405U,
  0xedf4f1f206fd0c0cU, 0xfd0ffd0381030eU, 0x3f01fff6fe0a09U, 0x8fcfa0e04d2f807U,
  0xbfdfdf2f7020a02U, 0xf5fe06ff0f0cfef8U, 0x80afe081a030606U, 0xf7fffd1002f7ff04U,
  0xf6f9fb04fe03fd0aU, 0x9ffe306140bf1feU, 0x40702fefb09f4f6U, 0xfc03f7fdedfa022aU,
  0x13fd7f08fb05f0fbU, 0xc01100cfa1207ebU, 0xfef4fdfef8040906U, 0xf315f10bf00006e9U,
  0xf3fe04fc0635fc03U, 0xc509ee81d108c6f3U, 0x244dd0caf303cad6U, 0xc6cb7041dfdeebaU,
  0xdd57ede7ee010ce2U, 0xf548fc44f715e833U, 0xdbf0f604c6322f0fU, 0xe081f61e70e0623U,
  0x38e4bae81904c8ffU, 0xd5ff0e1bfbf414f2U, 0xfaf30413f17f01edU, 0x1cfb0000fa0ffe03U,
  0xf3fc18f5ee02dc06U, 0x30204330105f703U, 0xecfaf8f8ff040508U, 0xfbfd0e910aea0703U,
  0xb1813211610fdefU, 0xd6eb5ce2f20d67ddU, 0xf8d40124f30a06eaU, 0x2327fef85fcc18f2U,
  0x5800f51839e8ffe6U, 0xd98e18e8ee7f0df0U, 0x261112faf177cd04U, 0xf208f4d0da21d6U,
  0xf14bb00109efc044U, 0xfd02fffa56080a1bU, 0x916eafff2e40efeU, 0x4202ec0d17ee0d55U,
  0x1302110405040af3U, 0xf90bd5041a060cU, 0xf5fc01fd17090cfaU, 0xf516096b070823ebU,
  0xf31c0304ff81eefeU, 0x633b3fc4f6fce202U, 0x6bc0209f31931ffU, 0x2419dc08300413fcU,
  0x4f9f0fa1447c735U, 0xb033e00c3a0634U, 0x152828ff1a7f02e9U, 0xb130524d8bebf02U,
  0xb07e429ff81e2f11U, 0xe64913ebf8f6f4efU, 0xf9f30b0fe412f0e4U, 0x1accc4faf0f5fcf5U,
  0xbe0f3f40c1d12e8U, 0xdc1cc0aed041714U, 0xf2e522fd02cde701U, 0x3b05fc3104f1f621U,
  0xe81e813161407f4U, 0x9ca8cf12f3e071eeU, 0x4e612b546bf1c1aU, 0x1c3000cd3341efdeU,
  0xe415dc01de383608U, 0x6c96fcff4bb9f14dU, 0x6d31ce526266e9e1U, 0xcd4fbf10a4281c4U,
  0x5b5345e64c0308bdU, 0x625220ff800f70eU, 0xfdf70e083008ff0eU, 0xfcfbdadd150a2efaU,
  0xfdaa1bf211080e21U, 0xe906f21b0009021cU, 0xddeffcfb7f1cffdfU, 0xe6ecf20c06f109f7U,
  0xf2e71716e2e00003U, 0x16f050b60efa07cdU, 0xfc3023ffe4fa26b7U, 0x146fc3fa19015c09U,
  0xb2e00d9fef616deU, 0xe7f1f81c9b0d00ccU, 0x60cbdd21e4db7feeU, 0xde1cf436013fe7ccU,
  0x1223ea2312f9dc09U, 0x4489811c04def4dcU, 0x2cafbf406f4efddU, 0xed6610ff26d8e5feU,
  0xeef8f20b34c501e4U, 0x2f24d405d34af55bU, 0x9012e149a6fef307U, 0x2224fcd5ea64f6e2U,
  0xc030d1eed0a0b6eU, 0xced01bcd1904f6f2U, 0x19c5e0f618cebecbU, 0xdd81cf4d0310d00cU,
  0xe98b14fd111f051dU, 0x2cb7ee0f07e2f4b0U, 0x4632f04c41ceb33aU, 0xeb1235c5d71ce84cU,
  0x48fd0a920ae24635U, 0x96fd31b51b1b8248U, 0x340919dc112732fbU, 0x12004c0bbac3321aU,
  0x30f5fd121a2d355fU, 0xff2a7ed9437f1fb5U, 0xf74dd3d7fa0957fbU, 0x155f72bfcd62368U,
  0xb44b7003d62e33c1U, 0xf0810c804285e44U, 0x5323c61e3c55819U, 0xe1d54ae743e74f11U,
  0x10fe0cd3522ff24U, 0xe8d4cad9d61803dfU, 0xb1f537d1041233ffU, 0xfc2004dfe2098142U,
  0xcaae404ac21c0024U, 0x81130eb309d3140eU, 0x18f42f3103c5e7f8U, 0xdff481e46e1df0dcU,
  0xfae83a12cdbb43d6U, 0xc2e661223a290ed1U, 0xd32a20e0e76707f2U, 0x923f7f0e0e61207U,
  0x1de6ba1d20eb3df0U, 0x1218f940dae9140fU, 0x7f0413e1ed1ff721U, 0xf7f406e22ff73741U,
  0x26f4250926f218f6U, 0x2705fef6e5f60a09U, 0x120502071befd704U, 0xe0d0f9d507e602f5U,
  0xf5f20b45f3340c04U, 0x30bf026ff010805U, 0x2005ff15fb7f04f7U, 0x4de91efd1afa11d8U,
  0x10e507fd160303f5U, 0xfc26f422ecfbed09U, 0xef0a13fef216f0f2U, 0x80008d50fe708ffU,
  0x25f80d0edcc41807U, 0xf423fffc0df50c1cU, 0xfb0dffeaf945f80fU, 0x17c0c70ce0fee7e4U,
  0xa37fefecd821f524U, 0xcefa04f2fed6fb02U, 0x5d130babb816e9e8U, 0xfc0b0c0564adea17U,
  0x18e5dc22eef82024U, 0xfff5f803f7dbee01U, 0xaffe90705fa1206U, 0xf8f819a2f62c0a05U,
  0xde05f1252d18f2f1U, 0xfeece8040bfcf9fdU, 0x414f80b1303eb7fU, 0x4fbf00ef1fffeU,
  0xfbff06f11029e2f8U, 0xef0a08fefd0bf3U, 0x3f80a12fc0006f6U, 0xbef030106070c06U,
  0xf0fcfb0402fe1a06U, 0xfffbf5fe05f8ff03U, 0x3f40a01fc06f5U, 0xff0b050bf3faf9fcU,
  0x81fe0dfe2713f8ffU, 0xf6ed67f9d824c3fdU, 0xfdf62ad60b192714U, 0xfceefe04bbf5f3fbU,
  0x12c0623173f2c12U, 0xf7e5f92f7f1613bfU, 0xa6e9e303591ce3f2U, 0x1ca10b14183f0327U,
  0xa054a61f7cd04e8U, 0x5fef9017f0402U, 0x1cb000cf5080707U, 0x8fbfefd04470701U,
  0xfa0d040a03ee0b02U, 0x60003fa0b04f0U, 0x160003faf3010a14U, 0x200fb14f60cfbf7U,
  0xfdfb05020200000eU, 0x17e90602f72304f9U, 0xcd09feeddd02f60cU, 0x18ea02080de0e309U,
  0x9e71c5cdbdf0bf3U, 0xe21bde29fffc7f0cU, 0xf737124008f9c6caU, 0x17e61dd2edfafb04U,
  0xfb092a1ffbd7f8deU, 0xfd1c123d17f61006U, 0xfc09ffe90e6d05f9U, 0xe1fdf5f007f80bfbU,
  0x50b1e06faedd309U, 0xfcea0d3909080a0bU, 0xf80216f0f90601ddU, 0xfbe5018112d8f6feU,
  0xf91812470b0e1fe4U, 0xf1f1040be4010000U, 0x3010910061004f5U, 0xcfaf10304fcfe05U,
  0x806fe0403e604f9U, 0x1ffedef02e20911U, 0xf50c030601f904fdU, 0xef106fefa030b10U,
  0xc9f012fe7f060503U, 0x1dd512f1ea812017U, 0xf138f7dd00030b1dU, 0x8c9236a00830528U,
  0xfe37c6dbe5022aU, 0x9f2f5ddf53c031dU, 0xf30100eeeaf4d4acU, 0x19ef01f1ecfbf3eaU,
  0xedf7fff20f1619deU, 0xff399fc2f91a06e1U, 0xbcdc8e829e6eb0bU, 0x17f7cdae44e5f613U,
  0xef7eb1c22053504U, 0x20fad6088130e843U, 0x190325fec317d1ccU, 0x1005f6ec92b9e4bdU,
  0xb8f7f616230ee3c1U, 0xdbef262f0200f6f7U, 0x6fa071fe9d606f2U, 0x811207f5f5020d14U,
  0xeef00107fcecf310U, 0x1f0f2dd100bf81cU, 0xfe00f6f7f0fe10f2U, 0x21ef0eff7f80304U,
  0xfbf81608f00910ffU, 0xd19be9610f8fd0fU, 0xf902030e270c17e8U, 0x6e081201f119261dU,
  0xf911720ff3211514U, 0xfe0efefcfafeefe0U, 0x3302dd18fa0ed905U, 0x403047f1d1713f7U,
  0x211a04d4f0ee07e2U, 0x12f8791d26f80808U, 0xcb0ae73a130a08faU, 0xe68126db090af41cU,
  0xf920fdf4f319f6U, 0xf258d80ef1f7f408U, 0xec1ad7f1fc0ba6f0U, 0xb01fded20eefafdU,
  0xbc9da21d2ca42f5U, 0xe70925fe010a2ef1U, 0x811df3faff2b4ff9U, 0xec00f5d234d00235U,
  0x7db29f019111ac9U, 0xc81f0be0e0eead3cU, 0xf08f3f9e71ef9ebU, 0xe906eecdeff3c8c6U,
  0xd6e00b3fe3110fe6U, 0xfdfc10fef9e40c09U, 0xfb2ff3140f100905U, 0x3e1fad5037f0703U,
  0xf7f30e0bf4011303U, 0xfd18fc08f80001e6U, 0x200c13d2f3f30431U, 0x4fdfe0525020105U,
  0xea18f4fef3fd032aU, 0x95f9d99add1dd81eU, 0xde180404eef232faU, 0x437f440060d0a00U,
  0x8c081dad702e804U, 0xe3d032ee4213f8ddU, 0xde0119093ce8421eU, 0xf11f75407362b00U,
  0x61932d5dfefcc06U, 0xef4eccc90dca11f5U, 0x8bc2537f2edede0U, 0xd201b51ba406fdfbU,
  0xcfce0336f7cee015U, 0x2e706e9491122c0U, 0x210748290f55d631U, 0x7f0422ed374e120eU,
  0x811b13df8e12818U, 0xfb0700ffa80401f9U, 0x3fefa0ff50b06fbU, 0x70401f902f7b0U,
  0x70e1aed04e906faU, 0xfe00fc1303fc00fcU, 0xf4fa00f800fc0f01U, 0x1f9facf05fafef8U,
  0xf7fc00fe7ff301U, 0xe8f0ffd8f8f9f6e0U, 0xf9efe726f801f3f4U, 0x1aeaddfe1dfef3f1U,
  0xf9060e0206032bdcU, 0xee7f2bea23050022U, 0xedfeeff5e0160f02U, 0x7b0f111f25f6fa05U,
  0x13e6e936ebeef6edU, 0xdffe7ffa1c13ca03U, 0xf8f2e2d40311f1d3U, 0x80e16f19ddfd5dcU,
  0xfec00fe12f70914U, 0x29d32f3503fd1028U, 0xd8ccf5dd14ff16e8U, 0x1cfd27f3f2eb351cU,
  0x15f004ed13a8e395U, 0x31050d1906ee00f0U, 0x3f702ffeee5ec01U, 0xff08fef818fef2e8U,
  0xffed050e08f60ff6U, 0xfc0802ef810df3e8U, 0xf6130a0d0bff1cf8U, 0x15e102e205f10607U,
  0xf7ffc9cee6f712fcU, 0x1e12ffd4edf56006U, 0x18dbee0013ff2621U, 0xdae0ac14bf50cb0U,
  0xd702f51704c9f4f6U, 0xf5261332ffe8fb2aU, 0xd0fd1106003dacbaU, 0xad2919e5fc1281bfU,
  0xff24f43b1e1ddac8U, 0x30540571f06e90dU, 0x1108ff1afdd7f80fU, 0x8105f5f8faf52326U,
  0xeff11f9f9fe1004U, 0xfdef10d61505fb34U, 0xf7fe03fafd00edfeU, 0x1bed12e5fbfb1b07U,
  0xff04001ec6e70401U, 0xd5f5f000d4d00ee6U, 0xdb1f6f11af5d6c0U, 0xe90722022cdbff23U,
  0x43962bf158ff1ef0U, 0xef109eedc49290eU, 0x88efcf2e46290212U, 0x20bf370e8178edd2U,
  0xd30843f4f8e2f7acU, 0x7f055e7cf5f5fee3U, 0x800ed2449f63616U, 0xca6fde91ef83205U,
  0x15d26b0a040e1101U, 0xff14c8c5f50f19f0U, 0x37020efc2a25fcf8U, 0xd711b10cfddbe8c4U,
  0xc9c4ae290dcc04f8U, 0xfdd5f135f8fff9d6U, 0xfe02fb0b0df3fdefU, 0xfef93516581f12f2U,
  0xf70e0802e402c1c8U, 0xf4cf09e83eff02dfU, 0xce1e0aead081cb11U, 0x6fff807e3d2009fU,
  0xe6281f2ee7f90917U, 0xd2ca8e807f8ede4U, 0xf6e1cc051007ee00U, 0x12093307ccd6d2ebU,
  0x244cff1d172108e7U, 0xfc0700147f00fc25U, 0x29facfe3e8250ef6U, 0x10e4f914dfbd23e1U,
  0xf0093622f9f411e6U, 0x1aaae40ff919ea25U, 0x31e0c0dedeefb13U, 0xd5f77ff5e2e9f7ebU,
  0x13000e0d11feef0aU, 0x14f0e807fe18fb06U, 0x310c11f60f0817f4U, 0x3dec03d408d7370bU,
  0x4b83f212bf639ebU, 0xb2e4e5a7d0f5f70dU, 0xfaecc6eb34140307U, 0x1cd0bad77f06fdc9U,
  0xa2a02e7fff223ffU, 0xf1dc073ec7eef772U, 0x2ffc0b14fc0db2fbU, 0xe4e206dacee10de3U,
  0xd728f51ef1120fd0U, 0xe01df9e2f30d100bU, 0xeb03031e08fe0e0cU, 0x1d0608020cfb08e8U,
  0x21f216fff42613efU, 0x8fef8f40b230c00U, 0x20a0e0306fa090cU, 0xd7f1f3190f04c401U,
  0xdaf21afd007ff91eU, 0xdb1b4ace0908463eU, 0xe408ea1cfdf4f829U, 0xc81fdec08efe8edU,
  0x90808fdfbe7fa06U, 0xfbf2da07d5f805f5U, 0x408240eff24b7f2U, 0xe808f2161a3cec0fU,
  0x140cf7ec21040909U, 0xf7f625380af9f208U, 0xecf60a1a05e6010bU, 0x81ecffff1af8ef0eU,
  0xfb080f13faf2f7f1U, 0xfbf0eddb00050d1bU, 0xfffc09fd0109e0ffU, 0x500fedffbf5f00dU,
  0xf7ed0e110a0a16f9U, 0x180b1771efe21000U, 0xf9ff22fa0fdf06afU, 0xf712ddc61beb41f1U,
  0x39a22b771fdd7545U, 0xfa10bc1329d40e39U, 0xd7dcff247fd63bcdU, 0xffffeb0dbb2ff3c7U,
  0xafd4183ef9150cedU, 0x283fef14f71f0e09U, 0xf0fc0b01fbf52413U, 0x6dfd31410f723ffU,
  0x16e7e20f0dfd0ff6U, 0xc9041601321fe607U, 0xcef4fffe7f23f407U, 0xff03f904150be5fbU,
  0xff32f0efed01f726U, 0x803f00e220003f8U, 0x4fcfc06fbed19ffU, 0xf9f0fa00f4f50724U,
  0x2ec7f0efb030d03U, 0x110f7070dfd0e13U, 0xf5fa04ffe60cdfdeU, 0xf8160424ed1fcce4U,
  0xfbfdf60b0412f5d8U, 0xf6f3e7f6e41508feU, 0xaf61af408f017fbU, 0xfc050108080d07dcU,
  0xff07fb7ff703f8fdU, 0xef1fc08fe13ec10U, 0x205faf4f607ec14U, 0xfafdf7f5ef05f8f2U,
  0xff0c011908130305U, 0x802e50cfdfbf5f0U, 0xf8ff050709ed0811U, 0x132314f7e60f00f8U,
  0x200a7ff60e1832f6U, 0xfcec071602fef715U, 0x20fce615fd04faffU, 0xfbeafb46f425c5dbU,
  0xfef22efeeeeaf0fdU, 0x27fac51f197f27faU, 0xcfa106ed08f1f113U, 0x310fe1d00f5e7d8U,
  0x5211ffaecda030eU, 0x1526ff0701da1b16U, 0x618e008b5220598U, 0x301fafb0319f3d5U,
  0x11031717fe071fd8U, 0xb8e77fe9f0f31be9U, 0xec0efef30f001f10U, 0x3a0ce6fc410c09fbU,
  0xf432091be9ed1cf6U, 0x1f1af41f44fbfcbcU, 0x90f0fe0ddafbdafcU, 0xe6ed15fcf35fdfffU,
  0xda340b42e0f1cbe3U, 0x26f02d2c010a09f1U, 0x2653542901152c00U, 0xc18160a330652f3U,
  0xa1c415dbae14d7U, 0xf154c40afacede11U, 0x7f07043f24ecf2f8U, 0xe830ef10c80300e3U,
  0x3d7b01ddb1c0cf6U, 0x230d7f40ddefeafaU, 0x19dd06ed0ee506faU, 0xd4d6c5012703fdcaU,
  0x13ff2cecf40d0915U, 0xfb09c4dc2ce80e18U, 0x13fd1b072ef0ca05U, 0xdb2902f00e3bf0f6U,
  0xffeebd0c1719170dU, 0x7848f4fbd7130a36U, 0xe61a0f5ffad61c3fU, 0xf7ac6807f9ede8d3U,
  0x1cd7190f2ed7ea14U, 0xf21b2d04dc29edd2U, 0x8125e51e0343fdf7U, 0x1feffcf85b1021f6U,
  0xd60319dcfc13f832U, 0x53d07951b1dc37e5U, 0x16e5e935f13bfed2U, 0xf5fed517ecfa27ceU,
  0xec34baeaf5fbe3f6U, 0xe0eff4a2d81f177U, 0x6e12f52b00da2106U, 0xe03f03b9fc440511U,
  0x1ae8e29ad6ca0217U, 0x24fd17d2f9057ff2U, 0x317e4e341f3fb17U, 0xfefdfefb18fffe08U,
  0xd91324f4fc051904U, 0x1104c9fc0bf4fcffU, 0xe6f697ef0a3202fdU, 0xdeb8f4ebfee001f3U,
  0x12ee7fa51f3dfd9U, 0x1a4aecee06e6df24U, 0x1ddc282949eed60eU, 0xe6eff619dbd6e6ffU,
  0x4109f11908327f13U, 0x3c38fc11dd131201U, 0xb27fc180705f822U, 0xe3e9efd1e9213e17U,
  0xf1a8cbef2ec1cfeU, 0xab38078108f4f506U, 0x1b3013f9102313faU, 0xfdfe11dbc4071af6U,
  0x24d1ebd6f725f908U, 0xf91d1cf7f113ecb9U, 0xd50725fafd0d07eaU, 0x2cf8fd53eb0419e7U,
  0xe3502441d03ec16U, 0xf6e2e81efe30f9dbU, 0x100f3df4f1f957d8U, 0xfd330af01efb6504U,
  0x3ef50203097fe7c1U, 0xf7d3f4fefbdbd2f4U, 0x3305e005130e4b09U, 0xd031b0d0bfc16edU,
  0xfed8241f06f5e632U, 0x28f57f592a02fcf7U, 0xf704f4fe2b2cf6f2U, 0xf414c9fbfdfde9d9U,
  0xeffbf3eff8ce0c0dU, 0xfa10f92716ecfe2eU, 0xe161c12e6ca0807U, 0xf8180cd6e23601e4U,
  0x160ab8f0efedf9f9U, 0x1f1ef81d0cf12a7cU, 0x1afbdaf8eefcec7fU, 0xfe0fdee07e9e0fcU,
  0x9608ef01e22a2f57U, 0xebd047e719f8130dU, 0x400876e8c50d53f2U, 0x1d1fd0f10e806f1U,
  0x153dbc17fefdfd15U, 0xb050beafe2a7d06U, 0x1343e63bf6ea0802U, 0x9e815ff21e7fb09U,
  0xbbf70cee0919cbf1U, 0xed352501fbf510deU, 0xe425c5f4f881f1fbU, 0x18e3080ff504e4fbU,
  0xefbabeeaef06fe11U, 0xcee101603f615eaU, 0x2fd091a167f0802U, 0x4007ebf9010802ecU,
  0xf211fdf0f707f3f9U, 0xfff4041c0cf5fafbU, 0xef1f5f7f5f4edf5U, 0xfe1cfecb04faf5efU,
  0xf1110b1e12faf6ebU, 0xc8aab312152fd6c1U, 0xeeee21fee60ce6c7U, 0xe0de190606e9ffa2U,
  0xd35509de27d5110dU, 0x1e0605050a43fc7cU, 0xc800f7e38109af59U, 0x322240d11052c8cfU,
  0x11c7f535002e4dfbU, 0xe81b18f30ddd150aU, 0xeaae081708fe2ff9U, 0x211325091938110aU,
  0x34d81af4d47f2aecU, 0xeef2f6e8368f14e6U, 0x1efc4f5ebedfdfbU, 0xe733fb1c78a00118U,
  0xf7cbcceaf70efde5U, 0xd192e3e8eee30fU, 0x10cd00eed6f3f30cU, 0xee120e2407bcf132U,
  0xf57f3d332f6b0d1dU, 0x22fc2bcc193b061bU, 0x4e7140cd6fab02bU, 0x13d60401e410de08U,
  0xe00a1756d3d5f1d7U, 0xdd002eccd50333fcU, 0xe9faed010f2105ecU, 0x3ae3c4d4251301bcU,
  0x1909e2f0feecf3deU, 0xf0f7f53943e8037fU, 0x2cee2c1a08fec9f4U, 0xc826fd2b0940c9e7U,
  0xfc2b112df811efd7U, 0xf2000629fc040b07U, 0xdfb04e600c60b10U, 0x81f5fff50aff1817U,
  0xefa0bf0fafc0af6U, 0xc0013a801030d13U, 0xf905060001ff17fcU, 0x9ea09e5fef6f6f2U,
  0x613f613fafdeafbU, 0x816870306fe173aU, 0x16e50e1be2b3050eU, 0xefe836fafaf6007fU,
  0xfa0007e6f72ade09U, 0xf913119e812ae8a4U, 0xe0d08efe81b3716U, 0x35e8f3ee12b81ff1U,
  0xc3031ec70f0b2115U, 0x3415fbf640fef61cU, 0xfd0c0509d7bcf4e8U, 0xb1010b00f0e10318U,
  0x28fd81f31502f2fcU, 0xb1c021ef6f60301U, 0x4f20bf7ef17f802U, 0xc230d4ae122d701U,
  0xee0b1c0f43bcf008U, 0x4fec3d7f0ff515ebU, 0x5eee446f2cf30c9U, 0xb9b1f0dd20d905e4U,
  0x80545f80d1cf10fU, 0xff22dddf07dde0f5U, 0x34fa0d080502c0f1U, 0xf4440bc0f0d30f00U,
  0xf0e7a201feef2dfaU, 0x9dec2b070e28b128U, 0xfee6c21eaf11cd7fU, 0xddb13f51ef3d6caU,
  0xce21301631e518e0U, 0x35ddfb94ee55ec32U, 0xd74ee9d8fee8aff4U, 0xc6ba1321f1a7fed9U,
  0xbc101606e4e13464U, 0x8fe011b24031000U, 0x27f1e9fb0a7ff4f0U, 0x6301f9f6fcfe0504U,
  0xfafd1af2f0ece703U, 0xf04ff27f20005edU, 0xe00edfbf5ecfef5U, 0x1616fb860e03fdf9U,
  0xf1a0906fcc802f4U, 0x74062a0de4151317U, 0xf7f204f90a1d0023U, 0x2bd02700c2def3f9U,
  0x470e59f639282d01U, 0xd109e92c7f35e7abU, 0x94c9ddf52957dcf3U, 0x5e9d000afa4100d9U,
  0x31e81a66fddaf7e4U, 0x371d68181a31d018U, 0xdbe4eee8f3ccea34U, 0xea10e41ac5debdbcU,
  0xd97fcc090a0dd3fdU, 0x100d3ec52802feffU, 0x7d0f120febfdf2edU, 0xd924fcee6eacfef9U,
  0xc0de7be12f51fd3U, 0x111f230b15e51634U, 0x406eb25eef7fbc9U, 0xfdc9f507e5080dfaU,
  0xb170effe5df2b7fU, 0xf4fefdfbd30100e9U, 0x14ec2001d606bfffU, 0xe02836193bf1f212U,
  0x20cd5ee00140af7U, 0x3eccf290b010ff4U, 0x3f1f0ef000fefdcU, 0x7c71b09090eeaf6U,
  0x1b7ff9fef419d0eeU, 0x191512031a06130aU, 0x2bebea050804e414U, 0xed2ff71208f1f20cU,
  0x1307141df0131513U, 0x2c0301e7b7edfc05U, 0xf4eb05e70ff70417U, 0xf7fbe908c7e2fed9U,
  0xb0deedd1627f6dbU, 0x20f1ef0e351cee7fU, 0x6060a03fb10f222U, 0x7effef2c536f9edU,
  0xf2ff070b1bfcfce1U, 0xf808fe00fe0808f6U, 0x5f6060b04fefc06U, 0xf21d080808d2faf9U,
  0xf4030a00c7e6fed0U, 0xf7fcf6000d1809e6U, 0xf3f60f7fffff040aU, 0x400020203c9f710U,
  0xaebea0d0cfd0106U, 0x954471b9cae8dc14U, 0xdca6fa14dbf3e0e1U, 0x3be210380ce0e9eeU,
  0xbfb14d14163f1432U, 0xad10507ae23e2fbU, 0x81faee2a372ad91fU, 0xcd533340565161bU,
  0xec2310f0e1f207a2U, 0x913070edaf9481bU, 0xf8ddf210f8de0b08U, 0xededdeeeb51be9bbU,
  0xf46fd706ca26f311U, 0xcef001a0cde81e9U, 0x42181df9d612ebf5U, 0xfc0714d321dfef2cU,
  0xe627fecc4c312a04U, 0x50af703e1fd0211U, 0x5feef09fdf5200aU, 0x700ff030000100bU,
  0xf076501f70400ffU, 0xfdfcf20afb0bfeefU, 0x211fafe170801ffU, 0xf2f2040bfcf4e1e8U,
  0xe2f90406017ffc0cU, 0x46e74f7fede6f715U, 0xb6e81c0f02ed17d7U, 0xc5ad02091ce52bdfU,
  0x620c70fdf50e163aU, 0xffe4b8f21a43cd0fU, 0x1a1c0c0935f7a609U, 0xadd18ab940bdbb1U,
  0xb7dbf73e03ff18e3U, 0x3142481ad8ffdae4U, 0x10f7073c0a0109fbU, 0x20781c07ced08f8U,
  0xbaff1de8fb68e02cU, 0x11360202011ceefeU, 0x60625e1cf3a12b7U, 0x1f4ee2afd8e1e5baU,
  0xd9edd7ff45e91e07U, 0xe7f5961d06054918U, 0x1cedec38ed38002aU, 0xccbdf60f38e0fc0cU,
  0xead5e92a0d26ed08U, 0xebeaf7288112f5fcU, 0xf3021ce047ebd5edU, 0x2cb6e3ac3993faf5U,
  0x22b03bdad4211712U, 0xfa0701080905e817U, 0xf3fa0403f2ffedf1U, 0x6edfdf4ee07f3f8U,
  0x1319f4e2fd130008U, 0xf20609ed05fffd2aU, 0x708ef06d5f2effbU, 0x8f3811106130c0bU,
  0xfe04f7fbf5ee0e07U, 0xfc05ffe1cc010508U, 0xfdf9f114e401f5fdU, 0xee70d0703fb09d7U,
  0x110750feff03fc07U, 0xfefbf9effd0a01fbU, 0x614fc060c04e202U, 0xf60601070703f9f5U,
  0xf60401f8f57f03faU, 0x528cffd60d278b1fU, 0xe117c41efcf6fa2eU, 0xfddce2e97adcd5e9U,
  0x612d0c0813d25f0eU, 0xcb3bdaf52ae1190bU, 0xbe007fe8e4daeeedU, 0xc516f1febfd2ec14U,
  0x1f809e5a9fa04f6U, 0x9c57ffffbdd0U, 0x81af00014386U, 0xffffc4b000005017U,
  0xfffede480000200dU, 0xffffd38a00007cfcU, 0xffffe44300003844U, 0x2ee000105a3U,
  0x7b0a00003498U, 0xffffeb480000686fU, 0x845affff9dcaU, 0xb33effffd4dbU,
  0x12a000000e57U, 0xdbfd0000d41eU, 0xd1ea00008d75U, 0x7428000020abU,
  0xffffea46000017b1U, 0xfffffb80ffff92adU, 0xa300001c2fU, 0x4732fffffca8U,
  0xffff9fb3ffffff60U, 0x4fb3ffffc8dfU, 0x3ff0ffffc516U, 0xc5bffff8764U,
  0xffffd4600000a4d3U, 0xcf960000cdb9U, 0x13affffff442U, 0x20070000ec9cU,
  0x214a00000a93U, 0x1e8bffffcd5dU, 0xfffff78b00007651U, 0xd2fa0000da63U,
  0xffffb0cd00009299U, 0xf3070000b257U, 0x19352ffffe2d8U, 0x904bfffff21cU,
  0xa4ceffffb1c4U, 0xffffde680000b99dU, 0x11ea800004abcU, 0x84f5fffffcc9U,
  0x6934fffff66bU, 0x4ecd000099adU, 0x8f770000852bU, 0x14eb00006a7aU,
  0x1553ffffd1fdU, 0x20f5ffff9d93U, 0x591000000e1U, 0x120a00004242U,
  0x69f200002250U, 0xc5df0000737dU, 0xffffef57000044adU, 0xb2290000060dU,
  0x5604ffffdc5dU, 0x432b000055d0U, 0xa627ffffca6eU, 0xe510001704dU,
  0x1903a00007eacU, 0xffffc81b00001403U, 0x3c240000474cU, 0x6bceffffe90cU,
  0x8506000044aaU, 0x70f000103c8U, 0xa4a800010aa9U, 0x95af00026f00U,
  0x11e600002681U, 0xf8002e06e01ef1f4U, 0xf615e801f106fffcU, 0xfbfef51f00ff050aU,
  0xf5e110ff3d05f8f9U, 0xef0518fa170c1e08U, 0xdf0007f112eb2103U, 0x1eeb7f16f6fbfb01U,
  0x1a1514d206f50403U, 0xf207e4fc1e13eaddU, 0xeade0206020851efU, 0xf9f70802fffb091aU,
  0xf2140af8fff7e7caU, 0x13fa190913010405U, 0xfafc001905de0efeU, 0xeafbf5002ffff510U,
  0xcf7fe04fe061603U, 0xe80c7fe8e47ff4d1U, 0xeaadd52de71cf8f2U, 0xecf0f0fffef619e7U,
  0x481fbf77fe4fbf4U, 0xf81b7fe5ee0d0f23U, 0x81040b1c7fb23ceaU, 0x7fbff0eff209f7e7U,
  0x7f7f7fb820f6031fU, 0xd90c9207e61c0df3U, 0xdbf80dcbe9f57fe9U, 0x9e70207f3f20bf5U,
  0xee000707fcefc47fU, 0x6d327257f030206U, 0xb11f2f8d6817f0dU, 0x8122e70c7fd4cceeU,
  0x22fde1ebf2f27ffcU, 0xfa0e2d06141ceef5U, 0xf5ea0303fc00fe04U, 0x70118e3fff7fbfbU,
  0xf8e8feff1e00fcf4U, 0x180218f9f2fef804U, 0xeb0307f10fea1506U, 0x27eb90f4f6f3f904U,
  0x1916171c0512f40aU, 0xf300e1fcfbfaf92cU, 0xec2605050c033df1U, 0x3fe07030aff05edU,
  0xf9ec04fffdf4fc36U, 0xe5f3120413080406U, 0xf7ea00f000e107fdU, 0xe9fef201280011fcU,
  0xe09fd0704071705U, 0xfd2bebf2c3ec0211U, 0xeb0dc406dc11f3deU, 0xfa1b817f7fdd0c7fU,
  0xd7ff7f05d77ff3d5U, 0x8715ebe27f042924U, 0x911a091606d141e4U, 0xfab61b7ff3dcf6ebU,
  0xf7ff08222a90c92bU, 0xec1a01037f25a993U, 0xd6810cd5e47f5eeeU, 0x78e605fd8dfb047fU,
  0xf37f0e8201ee2304U, 0x81e52417ffbf070bU, 0xed13ed7fe2fbea0eU, 0xf61cecfcd7e6e97fU,
  0x148112f8f67afb01U, 0x7f7f977f7fa27f7fU, 0x7f7fa77f817f7f7fU, 0x8181feef8f817fd1U,
  0x7f178a7f989f817fU, 0xf47fbf7fef7f7f7fU, 0xd17f7f7fed817f81U, 0xda819aae7f7f8181U,
  0xc5e5e97f7ff17f7fU, 0x7f7ff77f857f7ff8U, 0x81077fb09ed7397fU, 0x817f7f8ff18181f5U,
  0x81ec7f7f7f7f9844U, 0xfc27f7fee81817fU, 0x81667ffab701917fU, 0x157f7f7f827f81adU,
  0x7f0a7f7f8181e195U, 0xe81ed2f0f8f6f702U, 0xeb16ff02dd08f509U, 0x11d7892f7e70af0U,
  0xe6fdf908fcddfadcU, 0x7f0ee8e48f0f0f1cU, 0xa31b131a08f53cecU, 0x6ca1de0f19afff7U,
  0xf3f80407167fe710U, 0xef09fc06fc23d97fU, 0xe77d0ddd7fa75cf1U, 0x16e406fd7f01e984U,
  0xfa8f1cf003ecd13bU, 0x6ae6190dfecb0e03U, 0xed81e586e3f8ed10U, 0xfb10edfbe5ee07d7U,
  0x127208edfdfbfd7fU, 0xf61bed03e4faf0fdU, 0xf0f44c0400ff01f4U, 0xfffcf81d0ef9f80fU,
  0xfa181407df0ef7efU, 0xeefffaf51402f905U, 0xea0404fae4e514fdU, 0xe9f78e10eff801f7U,
  0xf0f3e50a07edfb17U, 0xf004190411faeedaU, 0xeff2fc2200123ff5U, 0xf7fc0006f9fb0719U,
  0xfb1805f9fef349d7U, 0x4160f04eb020906U, 0x15fff9160e1ffffaU, 0x19f3f905fc022816U,
  0x6edf80c040bef04U, 0x308e5e1eae1f3dcU, 0xdcd67f10db04fee4U, 0xe8ec07fcfbef06eaU,
  0x36df300eb20faf7U, 0xf625bfd2f8140d28U, 0x8e05171e92ad22ecU, 0x90c610f6e21804fdU,
  0xab9885cf0af70525U, 0xe5fe7f06042909f8U, 0xeefd037ff4f254ecU, 0xfadf017ff4fbfdfeU,
  0xfff916fdfbeb7fddU, 0xf37f191792ee140cU, 0x740ee8f87f7bfd17U, 0x7007f3f507ee65ecU,
  0x19fce9eb06e6a0ffU, 0xf604df0317f9ebfcU, 0xee101b070400fcfaU, 0xff1be5fbf201f8U,
  0xf617f904e7f1fbfcU, 0x1505f6f1ed021700U, 0xe8030dfce5ef0e02U, 0xeaff6d00edf1fffeU,
  0xeaf3eaf80112fd0dU, 0xf2ff22fffb08ff2aU, 0xf61dfd1e10fc3cf4U, 0x1f5020312fbfbe6U,
  0xfbf10905fef213b6U, 0x21a12feeb050a08U, 0x13eafdef131d01f8U, 0x1bf7f403fbfe3ef6U,
  0x814f7080506e909U, 0x2211fffff0feU, 0x389900001b96U, 0xb8400000511U,
  0x15ceffffe01cU, 0xb1000004008U, 0xa70ffffffb1aU, 0xfffffb1bffffc54bU,
  0x22b2ffffe585U, 0xffffd2cdfffff915U, 0xfffffbcc0000cbb7U, 0xfffffabdffffff7fU,
  0x8121000044ffU, 0x73acfffffb86U, 0x4bd00005096U, 0xfffffd8800001a82U,
  0xffffefc5ffffff89U, 0xffffe14fffffd678U, 0x709fffff24bU, 0x4fc0000387aU,
  0x50effffc6c6U, 0x19b800007f75U, 0x4740000b857U, 0xffff876fffffd28cU,
  0x145fcffffdfbcU, 0x8cb300004721U, 0x142d000002feU, 0x4e020000195aU,
  0x4c1000097a5U, 0xffffeeabffffb12dU, 0xffffbef00000015aU, 0x762ffffe3f5U,
  0xb93fffffdd7U, 0x47600002386U, 0x1a31ffffc2c1U, 0xb1ffffe448U,
  0x25aefffff6a2U, 0xfffff7c100002ae4U, 0x88500000086U, 0xffffcbc8000001dcU,
  0xb81bfffff9b4U, 0x329300000810U, 0x248000080feU, 0xfffff3cb00000b62U,
  0x3a64000000d6U, 0xfffffdfa00002c7eU, 0x66800001479U, 0xffffc6390000087fU,
  0xa10d00000122U, 0x5652fffff238U, 0x21a00005f31U, 0xffffec48ffffd7feU,
  0x274000009acU, 0x6cbffffceb7U, 0x6720000084eU, 0x2140000000b3U,
  0x76000000908U, 0xfffffc2200000664U, 0x3ce00001d8fU, 0x10cdffffe014U,
  0x280ffffd5d1U, 0x131fffff56dU, 0x519c000007ffU, 0xffffdc6dffffe74fU,
  0xffffe7fe0000027fU, 0xd718ee401f01e191U, 0xeeca2def1bcf2e21U, 0xbcfccbe6f41e02d4U,
  0xf0f5dc4309d32cd8U, 0x381dc039b5323c4bU, 0x1e6a1845e8d2875aU, 0xe83f2dfcf0f2e870U,
  0x3624c3c34507cb19U, 0x6d3f010b00f24e4U, 0x4cf334ffba4610e9U, 0x3181b7ebff3b27f6U,
  0xa60e270735010eecU, 0x110fd1fef8f5ea05U, 0xcfb69d607fd0109U, 0xdff24d1330e905fbU,
  0x15d4eae134b8fbc9U, 0x7020717fc01fe05U, 0xfe0010f3fe0c02f3U, 0x2f71de314070101U,
  0xfffa03f9170f050bU, 0x4f80403de0cfe0bU, 0xf905fbfc11060302U, 0x8fa01f926050ef9U,
  0xe01faf917eefeU, 0x6e705fcf7f8fc08U, 0xf5f5fff9ea12e700U, 0xebf5fad4050bf2U,
  0x18f0f904f8e7f90bU, 0x8fb00f90004f3fbU, 0xf705f701030a07U, 0x103ff0017f30781U,
